<pad>	0
<unk>	0
<s>	0
</s>	0
▁t	-0
▁a	-1
in	-2
he	-3
er	-4
on	-5
re	-6
at	-7
▁the	-8
or	-9
es	-10
▁s	-11
nd	-12
ou	-13
it	-14
en	-15
an	-16
▁c	-17
is	-18
▁o	-19
▁w	-20
▁f	-21
al	-22
▁p	-23
ed	-24
ing	-25
ar	-26
▁of	-27
ic	-28
▁and	-29
▁b	-30
ion	-31
▁in	-32
▁m	-33
▁to	-34
ro	-35
as	-36
▁S	-37
le	-38
▁d	-39
▁T	-40
▁C	-41
el	-42
om	-43
▁A	-44
ent	-45
il	-46
▁h	-47
▁I	-48
et	-49
ct	-50
▁P	-51
ot	-52
st	-53
▁th	-54
▁y	-55
▁re	-56
▁n	-57
▁l	-58
▁M	-59
ation	-60
▁you	-61
▁B	-62
▁H	-63
▁e	-64
ow	-65
id	-66
▁D	-67
ol	-68
ch	-69
us	-70
ra	-71
▁R	-72
ce	-73
im	-74
▁(	-75
▁is	-76
▁L	-77
▁F	-78
ig	-79
ve	-80
▁g	-81
▁W	-82
▁for	-83
ers	-84
▁on	-85
▁1	-86
ur	-87
am	-88
ag	-89
ut	-90
ay	-91
est	-92
▁2	-93
ad	-94
ith	-95
▁U	-96
▁be	-97
▁pro	-98
▁E	-99
▁G	-100
ir	-101
ly	-102
▁or	-103
▁with	-104
▁The	-105
ter	-106
ver	-107
ri	-108
ment	-109
▁-	-110
▁st	-111
▁con	-112
qu	-113
ab	-114
her	-115
▁an	-116
ul	-117
os	-118
▁N	-119
od	-120
▁that	-121
00	-122
▁O	-123
un	-124
pp	-125
our	-126
ess	-127
em	-128
ort	-129
ity	-130
ant	-131
▁al	-132
if	-133
ist	-134
ate	-135
ac	-136
▁it	-137
▁"	-138
res	-139
▁v	-140
▁In	-141
age	-142
ew	-143
art	-144
ill	-145
▁as	-146
out	-147
and	-148
我们	-149
ap	-150
▁he	-151
rom	-152
▁are	-153
op	-154
▁com	-155
▁,	-156
igh	-157
ore	-158
▁not	-159
▁your	-160
▁V	-161
ect	-162
ies	-163
ain	-164
▁wh	-165
▁us	-166
▁from	-167
um	-168
ok	-169
otel	-170
▁de	-171
▁/	-172
▁ex	-173
ia	-174
ak	-175
oc	-176
▁k	-177
se	-178
▁.	-179
▁was	-180
▁at	-181
ail	-182
▁su	-183
▁)	-184
酒店	-185
ang	-186
▁sh	-187
iv	-188
du	-189
▁se	-190
▁J	-191
ld	-192
▁Ch	-193
▁St	-194
ice	-195
01	-196
ry	-197
▁this	-198
▁3	-199
ard	-200
▁K	-201
ure	-202
▁by	-203
og	-204
ight	-205
com	-206
pe	-207
all	-208
▁:	-209
▁r	-210
ine	-211
nt	-212
ave	-213
erv	-214
▁Re	-215
ive	-216
ip	-217
▁we	-218
for	-219
RL	-220
ust	-221
ook	-222
一个	-223
▁ac	-224
▁URL	-225
ud	-226
pt	-227
ide	-228
▁ch	-229
ite	-230
▁。	-231
提供	-232
▁can	-233
able	-234
per	-235
▁all	-236
ial	-237
服务	-238
▁4	-239
ast	-240
ost	-241
▁Y	-242
are	-243
ell	-244
ther	-245
form	-246
ions	-247
ff	-248
ork	-249
数据	-250
ree	-251
ong	-252
ear	-253
▁have	-254
使用	-255
▁cont	-256
▁will	-257
▁any	-258
▁u	-259
可以	-260
pl	-261
port	-262
rou	-263
ire	-264
▁do	-265
▁le	-266
ated	-267
th	-268
▁Th	-269
公司	-270
duct	-271
▁在	-272
hen	-273
iz	-274
ance	-275
▁comp	-276
cl	-277
▁请	-278
▁en	-279
act	-280
ib	-281
av	-282
ind	-283
ick	-284
ik	-285
▁Hotel	-286
▁me	-287
▁ab	-288
ru	-289
▁ad	-290
ase	-291
ile	-292
quest	-293
ach	-294
ack	-295
ark	-296
ations	-297
ub	-298
▁5	-299
▁res	-300
cess	-301
任何	-302
信息	-303
ans	-304
lect	-305
ical	-306
ass	-307
gh	-308
ace	-309
▁201	-310
ame	-311
ign	-312
ie	-313
fer	-314
ge	-315
▁pl	-316
网站	-317
ich	-318
vel	-319
ices	-320
▁other	-321
▁这	-322
ount	-323
▁our	-324
▁We	-325
ob	-326
▁“	-327
ord	-328
▁im	-329
ous	-330
so	-331
ome	-332
iew	-333
ult	-334
ex	-335
asp	-336
所有	-337
ont	-338
▁go	-339
▁cl	-340
ime	-341
▁serv	-342
▁ro	-343
▁j	-344
▁un	-345
▁Dat	-346
ress	-347
▁app	-348
▁man	-349
formation	-350
aspx	-351
▁prov	-352
ft	-353
ould	-354
own	-355
ments	-356
您的	-357
to	-358
▁has	-359
one	-360
te	-361
▁so	-362
ai	-363
ue	-364
他们	-365
ence	-366
0.	-367
▁part	-368
▁Pro	-369
ary	-370
▁hotel	-371
tern	-372
erm	-373
▁more	-374
lic	-375
▁use	-376
quested	-377
数据表	-378
求的	-379
▁ag	-380
ber	-381
▁but	-382
ake	-383
ish	-384
▁ne	-385
ates	-386
其他	-387
▁out	-388
▁up	-389
ech	-390
ors	-391
ater	-392
ition	-393
very	-394
heet	-395
▁我	-396
▁dis	-397
▁tra	-398
ond	-399
▁”	-400
▁his	-401
ound	-402
ng	-403
▁It	-404
ose	-405
ual	-406
▁Al	-407
▁Page	-408
▁Un	-409
▁6	-410
▁请求的	-411
工作	-412
asheet	-413
▁7	-414
ov	-415
▁Datasheet	-416
▁which	-417
ian	-418
ens	-419
▁sa	-420
▁我们	-421
ility	-422
ck	-423
▁her	-424
ational	-425
▁time	-426
▁This	-427
产品	-428
▁av	-429
▁8	-430
▁des	-431
ings	-432
▁information	-433
ics	-434
low	-435
▁pr	-436
yst	-437
▁Com	-438
▁one	-439
lo	-440
▁off	-441
▁ar	-442
▁Su	-443
▁about	-444
▁Sh	-445
part	-446
▁product	-447
clud	-448
▁如	-449
ee	-450
ities	-451
erry	-452
ina	-453
olog	-454
▁You	-455
时间	-456
▁He	-457
ise	-458
echn	-459
▁De	-460
19	-461
▁avail	-462
没有	-463
▁its	-464
▁their	-465
显示	-466
ory	-467
▁9	-468
▁19	-469
ink	-470
▁per	-471
..	-472
▁also	-473
li	-474
oy	-475
ystem	-476
▁kn	-477
end	-478
10	-479
ild	-480
▁they	-481
通过	-482
ER	-483
ons	-484
ere	-485
以及	-486
orld	-487
ram	-488
▁的	-489
ages	-490
▁sp	-491
anc	-492
int	-493
ays	-494
any	-495
▁Requested	-496
ited	-497
什么	-498
▁work	-499
old	-500
bs	-501
cre	-502
▁tr	-503
ven	-504
▁spe	-505
▁det	-506
reat	-507
▁includ	-508
▁new	-509
lease	-510
ange	-511
▁may	-512
▁there	-513
ric	-514
ne	-515
▁qu	-516
中国	-517
▁第	-518
ely	-519
▁my	-520
de	-521
▁Ex	-522
▁Ad	-523
系统	-524
▁pre	-525
aw	-526
riv	-527
ject	-528
▁Be	-529
▁acc	-530
▁them	-531
价格	-532
▁such	-533
▁room	-534
▁fe	-535
▁map	-536
重要	-537
▁Se	-538
nder	-539
▁Q	-540
▁And	-541
IN	-542
自己	-543
地图	-544
包括	-545
可能	-546
use	-547
有限	-548
搜索	-549
rough	-550
▁Ar	-551
▁For	-552
▁Wh	-553
▁km	-554
选择	-555
▁你	-556
▁him	-557
ert	-558
▁As	-559
▁who	-560
ON	-561
ph	-562
ower	-563
▁had	-564
▁loc	-565
▁she	-566
▁over	-567
land	-568
ents	-569
中心	-570
▁right	-571
▁Ro	-572
ple	-573
进行	-574
mer	-575
▁inter	-576
co	-577
here	-578
ath	-579
ines	-580
ood	-581
itt	-582
echnolog	-583
50	-584
▁10	-585
▁您	-586
ific	-587
ax	-588
ata	-589
▁US	-590
ures	-591
30	-592
▁am	-593
▁no	-594
▁&	-595
row	-596
iness	-597
ty	-598
les	-599
etw	-600
ove	-601
20	-602
201	-603
有限公司	-604
iss	-605
▁If	-606
▁pe	-607
velop	-608
▁reg	-609
▁200	-610
erson	-611
▁year	-612
▁ph	-613
设计	-614
▁X	-615
▁what	-616
▁[	-617
更多	-618
io	-619
ike	-620
."	-621
▁if	-622
ener	-623
免费	-624
edia	-625
uest	-626
▁when	-627
enc	-628
ating	-629
portant	-630
line	-631
▁—	-632
ails	-633
查看	-634
▁Im	-635
urn	-636
需要	-637
▁如果	-638
ious	-639
▁An	-640
▁system	-641
hed	-642
▁into	-643
详细	-644
200	-645
enter	-646
▁act	-647
ool	-648
▁add	-649
icket	-650
ries	-651
AN	-652
技术	-653
usiness	-654
ople	-655
▁car	-656
irect	-657
ank	-658
我们的	-659
ible	-660
▁|	-661
▁supp	-662
ade	-663
▁comm	-664
▁said	-665
TM	-666
▁found	-667
ability	-668
▁cons	-669
ware	-670
irst	-671
▁Pl	-672
▁been	-673
▁know	-674
ES	-675
ock	-676
▁Cl	-677
▁want	-678
▁vis	-679
stru	-680
世界	-681
▁trans	-682
▁need	-683
rol	-684
▁Z	-685
ron	-686
内容	-687
▁available	-688
cial	-689
cept	-690
你的	-691
▁only	-692
▁provid	-693
▁>	-694
▁rel	-695
air	-696
▁ser	-697
▁under	-698
icro	-699
OR	-700
▁China	-701
用户	-702
▁were	-703
▁see	-704
ouse	-705
上的	-706
▁New	-707
ful	-708
▁mod	-709
ally	-710
els	-711
管理	-712
▁data	-713
▁services	-714
.,	-715
EN	-716
▁world	-717
der	-718
▁shall	-719
ours	-720
国际	-721
个人	-722
▁co	-723
▁hotels	-724
▁Man	-725
round	-726
▁Sp	-727
▁ferry	-728
▁?	-729
显示地图	-730
▁Serv	-731
设备	-732
▁To	-733
fter	-734
▁through	-735
这些	-736
ern	-737
AT	-738
▁0.	-739
partment	-740
ps	-741
应用	-742
▁Cont	-743
12	-744
▁Co	-745
ustom	-746
echnology	-747
问题	-748
▁em	-749
▁service	-750
▁ticket	-751
ale	-752
rib	-753
▁sc	-754
ternational	-755
▁exp	-756
▁col	-757
▁person	-758
ys	-759
公寓	-760
vent	-761
国家	-762
ann	-763
ife	-764
▁high	-765
eng	-766
view	-767
olut	-768
oss	-769
▁他	-770
▁bu	-771
▁Bl	-772
au	-773
comm	-774
arket	-775
▁than	-776
▁view	-777
已经	-778
预订	-779
▁these	-780
网络	-781
▁酒店	-782
ract	-783
ough	-784
▁develop	-785
▁like	-786
▁people	-787
wn	-788
iles	-789
ET	-790
▁details	-791
▁@	-792
美国	-793
▁详细	-794
ied	-795
▁hel	-796
本网站	-797
AR	-798
▁tw	-799
▁–	-800
▁get	-801
文件	-802
cur	-803
▁min	-804
▁Res	-805
安全	-806
▁show	-807
aff	-808
▁resp	-809
way	-810
ites	-811
▁access	-812
pro	-813
ection	-814
min	-815
▁详细搜索	-816
▁ass	-817
ix	-818
知道	-819
uring	-820
▁look	-821
ts	-822
ca	-823
▁free	-824
ren	-825
▁first	-826
▁most	-827
▁book	-828
中的	-829
因为	-830
帮助	-831
▁Us	-832
距离	-833
客户	-834
ivers	-835
ular	-836
企业	-837
ble	-838
▁pass	-839
11	-840
oint	-841
fore	-842
▁Please	-843
▁design	-844
▁offers	-845
▁cre	-846
▁0	-847
▁Con	-848
led	-849
ality	-850
ash	-851
▁che	-852
这个	-853
ss	-854
▁exper	-855
alk	-856
bsite	-857
▁set	-858
浏览	-859
▁God	-860
IT	-861
orn	-862
相关	-863
ah	-864
).	-865
▁how	-866
az	-867
▁Ph	-868
位于	-869
情况	-870
▁process	-871
▁Ag	-872
部分	-873
生产	-874
▁applic	-875
▁site	-876
als	-877
公里	-878
▁requ	-879
▁some	-880
▁ra	-881
▁back	-882
con	-883
load	-884
ily	-885
ype	-886
ience	-887
000	-888
用于	-889
gan	-890
elf	-891
▁just	-892
oth	-893
▁rem	-894
its	-895
ublic	-896
▁good	-897
pen	-898
▁te	-899
的人	-900
详情	-901
▁eff	-902
▁met	-903
▁make	-904
apter	-905
▁Is	-906
关于	-907
▁business	-908
不是	-909
的一	-910
ext	-911
▁count	-912
▁So	-913
▁provide	-914
▁How	-915
▁sm	-916
软件	-917
ature	-918
视频	-919
▁aut	-920
▁would	-921
▁Mar	-922
▁和	-923
▁Ind	-924
的工作	-925
▁offer	-926
ient	-927
ral	-928
▁sub	-929
▁Comp	-930
15	-931
标准	-932
▁$	-933
▁oper	-934
客房	-935
▁Important	-936
▁Supp	-937
ased	-938
ey	-939
▁custom	-940
ox	-941
▁well	-942
设施	-943
sh	-944
▁24	-945
▁then	-946
▁fl	-947
▁including	-948
▁dif	-949
▁very	-950
AC	-951
Sh	-952
ction	-953
现在	-954
▁Des	-955
▁bel	-956
获得	-957
方式	-958
▁here	-959
lish	-960
▁United	-961
ownload	-962
▁main	-963
IS	-964
▁Chapter	-965
ize	-966
ows	-967
他的	-968
hes	-969
ator	-970
▁Le	-971
▁ob	-972
▁hours	-973
less	-974
▁page	-975
▁ind	-976
▁On	-977
pr	-978
atch	-979
andard	-980
ute	-981
▁help	-982
活动	-983
▁gener	-984
16	-985
arm	-986
IC	-987
ident	-988
▁Ac	-989
就是	-990
▁form	-991
住宿	-992
▁Fr	-993
18	-994
▁18	-995
ug	-996
▁air	-997
支持	-998
▁proper	-999
▁dist	-1000
let	-1001
▁two	-1002
?"	-1003
ness	-1004
UR	-1005
▁At	-1006
AL	-1007
▁visit	-1008
或者	-1009
ollow	-1010
uro	-1011
我的	-1012
ED	-1013
控制	-1014
arg	-1015
重要详情	-1016
ption	-1017
▁years	-1018
大的	-1019
程序	-1020
▁used	-1021
能够	-1022
▁att	-1023
▁does	-1024
▁Work	-1025
▁did	-1026
ipp	-1027
访问	-1028
inu	-1029
▁pol	-1030
▁All	-1031
een	-1032
▁hand	-1033
▁12	-1034
▁Eng	-1035
▁CO	-1036
rand	-1037
▁inv	-1038
▁Pr	-1039
▁不	-1040
解决	-1041
开始	-1042
▁every	-1043
项目	-1044
▁products	-1045
13	-1046
ll	-1047
por	-1048
▁del	-1049
▁again	-1050
电子	-1051
ration	-1052
▁有	-1053
▁content	-1054
ized	-1055
▁order	-1056
tic	-1057
▁Micro	-1058
▁own	-1059
▁near	-1060
),	-1061
24	-1062
人的	-1063
ict	-1064
▁Air	-1065
ersion	-1066
rit	-1067
fact	-1068
ces	-1069
▁require	-1070
ative	-1071
aterial	-1072
▁after	-1073
ilities	-1074
red	-1075
▁price	-1076
iet	-1077
下载	-1078
▁should	-1079
类型	-1080
好的	-1081
▁15	-1082
ward	-1083
▁What	-1084
app	-1085
▁cur	-1086
▁bl	-1087
▁Tra	-1088
ner	-1089
ftware	-1090
ikip	-1091
ikipedia	-1092
▁equ	-1093
▁way	-1094
25	-1095
渡轮	-1096
页面	-1097
▁best	-1098
▁inst	-1099
▁server	-1100
uss	-1101
▁当	-1102
room	-1103
ting	-1104
▁Gu	-1105
同意	-1106
协议	-1107
是一个	-1108
▁sur	-1109
▁control	-1110
▁rec	-1111
▁online	-1112
tain	-1113
▁1.	-1114
iqu	-1115
▁mon	-1116
▁where	-1117
▁now	-1118
你们	-1119
为您	-1120
▁day	-1121
▁num	-1122
▁many	-1123
roup	-1124
▁pur	-1125
4.	-1126
必须	-1127
要求	-1128
附近	-1129
▁val	-1130
功能	-1131
保护	-1132
▁without	-1133
发展	-1134
▁20	-1135
ants	-1136
AS	-1137
cri	-1138
▁Â	-1139
up	-1140
ote	-1141
2.	-1142
▁Room	-1143
▁Free	-1144
▁ref	-1145
版本	-1146
▁follow	-1147
联系	-1148
地区	-1149
船票	-1150
位置	-1151
分钟	-1152
▁Can	-1153
ier	-1154
▁fac	-1155
▁But	-1156
gy	-1157
这样	-1158
▁但	-1159
▁City	-1160
▁adv	-1161
td	-1162
▁gl	-1163
▁ful	-1164
ather	-1165
▁agree	-1166
ision	-1167
1.	-1168
dust	-1169
▁long	-1170
以下	-1171
合作	-1172
资料	-1173
eld	-1174
ird	-1175
▁ent	-1176
ital	-1177
▁conf	-1178
80	-1179
客人	-1180
▁market	-1181
百科	-1182
▁stat	-1183
▁name	-1184
come	-1185
▁support	-1186
ton	-1187
市场	-1188
▁list	-1189
▁She	-1190
ural	-1191
ufact	-1192
ene	-1193
▁prot	-1194
▁为	-1195
▁law	-1196
▁There	-1197
▁cond	-1198
▁interest	-1199
cause	-1200
reet	-1201
▁从	-1202
▁don	-1203
▁term	-1204
▁requested	-1205
arge	-1206
und	-1207
▁indust	-1208
iron	-1209
commod	-1210
▁ed	-1211
rist	-1212
etween	-1213
▁same	-1214
ars	-1215
▁最	-1216
▁could	-1217
不同	-1218
IP	-1219
icon	-1220
resent	-1221
outh	-1222
▁differ	-1223
▁made	-1224
▁find	-1225
▁even	-1226
主要	-1227
非常	-1228
▁By	-1229
▁Cent	-1230
ning	-1231
▁direct	-1232
ode	-1233
汽车	-1234
▁App	-1235
14	-1236
lier	-1237
▁change	-1238
ining	-1239
ins	-1240
研究	-1241
法律	-1242
▁她	-1243
agement	-1244
amp	-1245
rent	-1246
▁」	-1247
▁rest	-1248
▁IN	-1249
▁life	-1250
ring	-1251
▁Am	-1252
ium	-1253
时候	-1254
方案	-1255
作为	-1256
▁account	-1257
接受	-1258
etwork	-1259
▁within	-1260
▁between	-1261
lectron	-1262
▁Euro	-1263
▁material	-1264
▁phot	-1265
地方	-1266
▁power	-1267
Show	-1268
▁select	-1269
ery	-1270
▁'	-1271
▁sk	-1272
US	-1273
arch	-1274
other	-1275
▁Service	-1276
▁「	-1277
EC	-1278
struments	-1279
机场	-1280
ced	-1281
▁Fl	-1282
▁i	-1283
uch	-1284
的最	-1285
小时	-1286
▁Hotels	-1287
ional	-1288
▁cap	-1289
▁area	-1290
▁ins	-1291
▁int	-1292
▁Product	-1293
▁using	-1294
▁prof	-1295
▁With	-1296
▁Tex	-1297
▁No	-1298
uests	-1299
是一	-1300
▁take	-1301
▁accommod	-1302
sw	-1303
▁16	-1304
ify	-1305
▁Or	-1306
▁Col	-1307
▁must	-1308
ep	-1309
▁gu	-1310
▁TH	-1311
gram	-1312
▁rooms	-1313
atures	-1314
ember	-1315
aj	-1316
▁对	-1317
ives	-1318
ization	-1319
▁]	-1320
aking	-1321
get	-1322
▁International	-1323
eth	-1324
完成	-1325
▁sim	-1326
自己的	-1327
▁great	-1328
了解	-1329
电视	-1330
▁Texas	-1331
▁Working	-1332
拥有	-1333
▁cent	-1334
▁city	-1335
制造	-1336
▁bre	-1337
we	-1338
处理	-1339
▁My	-1340
▁project	-1341
▁prom	-1342
▁â	-1343
▁mach	-1344
▁before	-1345
▁En	-1346
的任何	-1347
条款	-1348
17	-1349
▁end	-1350
规定	-1351
ected	-1352
TD	-1353
uc	-1354
不会	-1355
▁When	-1356
ince	-1357
▁accept	-1358
aur	-1359
ane	-1360
连接	-1361
▁open	-1362
▁cho	-1363
itions	-1364
怎么	-1365
...	-1366
▁result	-1367
empl	-1368
▁vide	-1369
▁personal	-1370
了一	-1371
注册	-1372
经济	-1373
▁一	-1374
新的	-1375
▁Go	-1376
▁供	-1377
▁Instruments	-1378
音乐	-1379
继续	-1380
af	-1381
ION	-1382
aut	-1383
有关	-1384
pg	-1385
Fi	-1386
▁inf	-1387
27	-1388
▁Home	-1389
orth	-1390
▁fam	-1391
ource	-1392
▁left	-1393
▁Inn	-1394
▁Park	-1395
同时	-1396
NET	-1397
pos	-1398
自由	-1399
城市	-1400
▁availability	-1401
材料	-1402
▁States	-1403
责任	-1404
iversity	-1405
▁13	-1406
aly	-1407
▁company	-1408
▁fin	-1409
照片	-1410
▁Pol	-1411
vern	-1412
成为	-1413
的工作时间	-1414
▁Technology	-1415
40	-1416
▁place	-1417
旅游	-1418
游戏	-1419
根据	-1420
raph	-1421
oard	-1422
,"	-1423
ung	-1424
保证	-1425
▁21	-1426
▁miles	-1427
oun	-1428
▁Em	-1429
▁conn	-1430
erries	-1431
icy	-1432
▁eas	-1433
▁Web	-1434
▁2016	-1435
ENT	-1436
lex	-1437
org	-1438
▁real	-1439
▁More	-1440
inese	-1441
▁stud	-1442
▁perform	-1443
ookies	-1444
▁2.	-1445
▁stay	-1446
ada	-1447
这里	-1448
rant	-1449
分析	-1450
hip	-1451
全球	-1452
rive	-1453
▁Supplier	-1454
iver	-1455
EM	-1456
货商	-1457
riend	-1458
▁ext	-1459
▁sec	-1460
▁上	-1461
att	-1462
▁think	-1463
生活	-1464
▁dev	-1465
▁Download	-1466
▁此	-1467
▁var	-1468
表示	-1469
▁cle	-1470
▁website	-1471
自动	-1472
第三	-1473
curity	-1474
alth	-1475
▁each	-1476
大学	-1477
ury	-1478
istics	-1479
开发	-1480
▁number	-1481
▁def	-1482
jpg	-1483
indows	-1484
74	-1485
之间	-1486
▁Sc	-1487
60	-1488
发生	-1489
酒店的	-1490
emb	-1491
▁Ab	-1492
utes	-1493
day	-1494
▁priv	-1495
ason	-1496
大利	-1497
▁post	-1498
如何	-1499
images	-1500
▁because	-1501
ism	-1502
soft	-1503
▁down	-1504
▁spec	-1505
▁供货商	-1506
▁11	-1507
pend	-1508
ever	-1509
▁test	-1510
ster	-1511
环境	-1512
ames	-1513
▁rep	-1514
然后	-1515
▁dec	-1516
如果	-1517
权利	-1518
▁Our	-1519
因此	-1520
▁中国	-1521
OS	-1522
系列	-1523
▁sign	-1524
▁quality	-1525
▁Ltd	-1526
为您提供	-1527
olution	-1528
▁Inc	-1529
确保	-1530
▁water	-1531
▁ret	-1532
▁different	-1533
▁disc	-1534
组织	-1535
▁Christ	-1536
▁Sk	-1537
▁fun	-1538
ister	-1539
工具	-1540
▁flow	-1541
找到	-1542
ified	-1543
▁Europe	-1544
▁中	-1545
▁child	-1546
▁ask	-1547
▁read	-1548
▁those	-1549
统计	-1550
▁Ser	-1551
▁pay	-1552
▁call	-1553
方面	-1554
▁AN	-1555
▁say	-1556
▁development	-1557
▁opt	-1558
rop	-1559
▁property	-1560
▁special	-1561
人员	-1562
cy	-1563
▁start	-1564
解决方案	-1565
▁17	-1566
RO	-1567
ternet	-1568
政策	-1569
▁lim	-1570
▁public	-1571
▁lead	-1572
▁continu	-1573
ense	-1574
ott	-1575
▁Car	-1576
▁30	-1577
▁English	-1578
▁Road	-1579
earch	-1580
▁str	-1581
▁Comm	-1582
igation	-1583
ij	-1584
供应	-1585
▁located	-1586
ished	-1587
ling	-1588
ek	-1589
▁network	-1590
▁Information	-1591
▁away	-1592
并且	-1593
▁type	-1594
▁Chinese	-1595
zh	-1596
▁大	-1597
ider	-1598
更改	-1599
▁build	-1600
hor	-1601
aires	-1602
发布	-1603
▁显示地图	-1604
▁activ	-1605
ica	-1606
eep	-1607
不能	-1608
ux	-1609
book	-1610
▁bed	-1611
ateg	-1612
ield	-1613
▁ev	-1614
right	-1615
▁features	-1616
joy	-1617
▁cor	-1618
计划	-1619
▁Tr	-1620
▁commun	-1621
ically	-1622
▁Loc	-1623
▁TV	-1624
▁Street	-1625
ec	-1626
▁该	-1627
acy	-1628
▁Reg	-1629
▁14	-1630
▁Che	-1631
地址	-1632
▁本	-1633
日期	-1634
▁third	-1635
ues	-1636
affaires	-1637
rid	-1638
riaffaires	-1639
oh	-1640
ody	-1641
iving	-1642
ross	-1643
▁LTD	-1644
▁review	-1645
ination	-1646
▁come	-1647
目的	-1648
适合	-1649
▁Microsoft	-1650
▁Dis	-1651
▁low	-1652
resh	-1653
23	-1654
imes	-1655
conom	-1656
▁trad	-1657
TR	-1658
▁technology	-1659
▁enter	-1660
of	-1661
rade	-1662
▁它	-1663
▁cour	-1664
vert	-1665
▁partic	-1666
▁meet	-1667
rict	-1668
AD	-1669
self	-1670
aster	-1671
条件	-1672
编辑	-1673
交易	-1674
▁Your	-1675
aiw	-1676
▁cert	-1677
▁exam	-1678
arn	-1679
专业	-1680
ms	-1681
▁Pre	-1682
opy	-1683
▁Do	-1684
▁Add	-1685
▁software	-1686
▁Inst	-1687
▁home	-1688
▁top	-1689
▁around	-1690
AM	-1691
▁while	-1692
▁View	-1693
▁facilities	-1694
▁Hol	-1695
ookie	-1696
质量	-1697
▁play	-1698
存在	-1699
▁both	-1700
影响	-1701
具有	-1702
▁Apartment	-1703
她的	-1704
▁rece	-1705
angu	-1706
▁University	-1707
▁current	-1708
read	-1709
各种	-1710
ared	-1711
在线	-1712
▁是	-1713
IL	-1714
ique	-1715
err	-1716
▁walk	-1717
▁Sem	-1718
yp	-1719
▁维	-1720
方法	-1721
▁Design	-1722
▁effect	-1723
业务	-1724
▁contact	-1725
发现	-1726
实现	-1727
▁log	-1728
▁Last	-1729
▁level	-1730
ribut	-1731
计算	-1732
到了	-1733
邮件	-1734
ency	-1735
▁much	-1736
▁accommodation	-1737
▁wr	-1738
IM	-1739
▁incre	-1740
无法	-1741
stand	-1742
by	-1743
▁Wi	-1744
▁!	-1745
viron	-1746
▁Qu	-1747
EL	-1748
ipment	-1749
▁please	-1750
设有	-1751
emplate	-1752
ways	-1753
ering	-1754
ING	-1755
▁Part	-1756
uk	-1757
uman	-1758
▁poss	-1759
创建	-1760
▁experience	-1761
操作	-1762
▁respons	-1763
ences	-1764
▁travel	-1765
过程	-1766
▁Company	-1767
▁Airport	-1768
他们的	-1769
▁USD	-1770
▁saf	-1771
ising	-1772
ved	-1773
▁Par	-1774
社会	-1775
英国	-1776
行业	-1777
▁eng	-1778
▁ste	-1779
ights	-1780
超过	-1781
申请	-1782
▁check	-1783
▁与	-1784
▁AS	-1785
ploy	-1786
eb	-1787
▁40	-1788
ission	-1789
▁port	-1790
▁Host	-1791
▁Bar	-1792
lev	-1793
▁25	-1794
▁being	-1795
ets	-1796
法国	-1797
安装	-1798
许多	-1799
ales	-1800
注意	-1801
ym	-1802
▁可	-1803
obal	-1804
▁bath	-1805
▁house	-1806
ined	-1807
会议	-1808
▁Min	-1809
▁head	-1810
▁Off	-1811
▁apartment	-1812
这一	-1813
点击	-1814
所以	-1815
起来	-1816
90	-1817
▁enjoy	-1818
第一	-1819
▁elect	-1820
▁program	-1821
关系	-1822
▁fact	-1823
例如	-1824
ront	-1825
耶稣	-1826
的使用	-1827
oot	-1828
▁conc	-1829
▁able	-1830
▁country	-1831
akes	-1832
▁following	-1833
▁production	-1834
yn	-1835
投资	-1836
是否	-1837
ID	-1838
一些	-1839
▁going	-1840
▁tool	-1841
▁Wikipedia	-1842
itional	-1843
▁They	-1844
▁international	-1845
▁prices	-1846
▁tem	-1847
▁cost	-1848
▁x	-1849
▁File	-1850
26	-1851
creen	-1852
▁organ	-1853
情况下	-1854
ification	-1855
orm	-1856
enger	-1857
▁Book	-1858
来自	-1859
oor	-1860
itor	-1861
inal	-1862
▁point	-1863
▁industry	-1864
ten	-1865
fort	-1866
DF	-1867
资源	-1868
政府	-1869
▁hard	-1870
▁impro	-1871
ually	-1872
能力	-1873
之前	-1874
▁autom	-1875
▁rights	-1876
iconduct	-1877
执行	-1878
▁San	-1879
chool	-1880
▁collect	-1881
▁guests	-1882
ray	-1883
▁Services	-1884
▁cookies	-1885
atic	-1886
itc	-1887
apan	-1888
▁Amer	-1889
olutions	-1890
▁Ferry	-1891
餐厅	-1892
▁通过	-1893
ocial	-1894
▁three	-1895
▁accord	-1896
历史	-1897
还是	-1898
aper	-1899
▁ide	-1900
▁address	-1901
▁light	-1902
▁West	-1903
net	-1904
▁Vide	-1905
▁answ	-1906
teg	-1907
▁create	-1908
来的	-1909
▁important	-1910
vg	-1911
之一	-1912
▁Priv	-1913
结果	-1914
▁host	-1915
▁新	-1916
由于	-1917
认为	-1918
▁Bu	-1919
▁La	-1920
Wh	-1921
▁Version	-1922
范围	-1923
▁Cor	-1924
▁Bid	-1925
▁THE	-1926
▁though	-1927
ml	-1928
ittle	-1929
ino	-1930
▁ve	-1931
1,	-1932
浴室	-1933
的是	-1934
房间	-1935
▁small	-1936
▁machine	-1937
atter	-1938
服务和	-1939
▁friend	-1940
▁dem	-1941
RE	-1942
▁King	-1943
▁产品	-1944
ams	-1945
▁est	-1946
lectronics	-1947
▁pop	-1948
▁若	-1949
▁meas	-1950
都是	-1951
ior	-1952
vironment	-1953
ves	-1954
欧洲	-1955
▁Port	-1956
▁standard	-1957
sp	-1958
hai	-1959
▁sw	-1960
股份	-1961
acebook	-1962
▁application	-1963
的信息	-1964
▁let	-1965
ieve	-1966
▁non	-1967
▁bro	-1968
▁users	-1969
▁那	-1970
lete	-1971
be	-1972
快速	-1973
obile	-1974
▁turn	-1975
med	-1976
基督	-1977
▁days	-1978
99	-1979
完全	-1980
ruct	-1981
▁电	-1982
私人	-1983
ufactur	-1984
▁Other	-1985
22	-1986
简单	-1987
家庭	-1988
▁govern	-1989
▁OF	-1990
▁House	-1991
▁file	-1992
me	-1993
ately	-1994
▁100	-1995
3.	-1996
工业	-1997
▁Windows	-1998
ains	-1999
这种	-2000
rag	-2001
▁old	-2002
ticle	-2003
测试	-2004
▁美国	-2005
ibility	-2006
▁Center	-2007
▁minutes	-2008
▁无	-2009
的事	-2010
状况	-2011
ases	-2012
▁Semiconduct	-2013
链接	-2014
oud	-2015
▁World	-2016
▁nav	-2017
▁Best	-2018
OL	-2019
建筑	-2020
领域	-2021
par	-2022
AP	-2023
基百科	-2024
▁Germ	-2025
▁during	-2026
▁版本	-2027
TML	-2028
inc	-2029
ists	-2030
▁Sw	-2031
ential	-2032
▁always	-2033
▁security	-2034
利用	-2035
▁management	-2036
▁invest	-2037
语言	-2038
fast	-2039
商业	-2040
▁Standard	-2041
man	-2042
1)	-2043
建议	-2044
uter	-2045
HP	-2046
▁下载	-2047
oad	-2048
▁aff	-2049
▁provides	-2050
▁fore	-2051
dom	-2052
科技	-2053
▁Red	-2054
cover	-2055
▁、	-2056
▁Aut	-2057
喜欢	-2058
▁pat	-2059
isk	-2060
▁leg	-2061
▁photos	-2062
ha	-2063
ivid	-2064
▁Japan	-2065
▁离	-2066
reen	-2067
▁large	-2068
opp	-2069
MP	-2070
▁expl	-2071
▁happ	-2072
ources	-2073
▁Me	-2074
▁ca	-2075
▁National	-2076
▁som	-2077
▁Ferries	-2078
▁user	-2079
旅馆	-2080
▁pos	-2081
▁Site	-2082
▁link	-2083
303	-2084
png	-2085
▁Beach	-2086
▁click	-2087
▁still	-2088
▁ens	-2089
意大利	-2090
人民	-2091
ference	-2092
▁Jes	-2093
希望	-2094
▁Te	-2095
尼亚	-2096
The	-2097
▁年	-2098
100	-2099
▁word	-2100
的所有	-2101
▁Term	-2102
▁full	-2103
▁anal	-2104
享受	-2105
face	-2106
illa	-2107
▁Int	-2108
行为	-2109
用的	-2110
看到	-2111
▁更多	-2112
ana	-2113
▁France	-2114
▁request	-2115
空房	-2116
度假	-2117
描述	-2118
的时候	-2119
▁party	-2120
直接	-2121
两个	-2122
ajor	-2123
aving	-2124
▁Canada	-2125
70	-2126
amb	-2127
得到	-2128
press	-2129
ler	-2130
▁dom	-2131
▁South	-2132
▁2015	-2133
▁grow	-2134
▁state	-2135
▁Not	-2136
28	-2137
▁System	-2138
是在	-2139
sc	-2140
ht	-2141
工程	-2142
ips	-2143
▁Pe	-2144
Avg	-2145
▁provided	-2146
▁care	-2147
▁include	-2148
性能	-2149
▁我们的	-2150
▁staff	-2151
通知	-2152
▁card	-2153
akfast	-2154
▁Jesus	-2155
▁Group	-2156
▁heart	-2157
股份有限公司	-2158
▁每	-2159
▁required	-2160
机构	-2161
irc	-2162
▁所有	-2163
irl	-2164
ocu	-2165
▁3.	-2166
▁month	-2167
设置	-2168
tend	-2169
anies	-2170
▁Template	-2171
其中	-2172
▁他们	-2173
,000	-2174
▁di	-2175
ners	-2176
▁dates	-2177
▁Search	-2178
▁From	-2179
▁passenger	-2180
▁Gl	-2181
▁Facebook	-2182
▁run	-2183
艺术	-2184
▁查看	-2185
名称	-2186
特别	-2187
▁last	-2188
aces	-2189
▁key	-2190
▁如果您	-2191
▁against	-2192
承担	-2193
报告	-2194
pecial	-2195
▁few	-2196
▁men	-2197
▁chang	-2198
ran	-2199
▁Ass	-2200
▁Ste	-2201
▁give	-2202
▁标准	-2203
▁navigation	-2204
▁使用	-2205
ulation	-2206
urg	-2207
aim	-2208
oci	-2209
▁class	-2210
▁或	-2211
In	-2212
销售	-2213
平台	-2214
▁Ed	-2215
决定	-2216
thing	-2217
检查	-2218
▁North	-2219
▁night	-2220
36	-2221
ised	-2222
正在	-2223
play	-2224
▁flo	-2225
▁came	-2226
OT	-2227
▁bet	-2228
提高	-2229
▁One	-2230
▁customers	-2231
应该	-2232
the	-2233
▁List	-2234
cription	-2235
▁数据表	-2236
▁mult	-2237
▁match	-2238
隐私	-2239
rip	-2240
▁performance	-2241
itu	-2242
aint	-2243
▁things	-2244
▁Website	-2245
基础	-2246
ney	-2247
anghai	-2248
word	-2249
St	-2250
代表	-2251
广告	-2252
运动	-2253
oman	-2254
知识	-2255
▁阿	-2256
▁children	-2257
▁location	-2258
进入	-2259
anguage	-2260
很多	-2261
▁consider	-2262
▁equipment	-2263
旅行	-2264
▁dam	-2265
许可	-2266
▁ey	-2267
clus	-2268
rial	-2269
▁exist	-2270
arden	-2271
ators	-2272
▁Contact	-2273
▁State	-2274
还有	-2275
▁hist	-2276
put	-2277
▁war	-2278
教育	-2279
文化	-2280
阅读	-2281
ports	-2282
ift	-2283
ety	-2284
32	-2285
▁提供	-2286
▁Hong	-2287
ura	-2288
▁little	-2289
▁et	-2290
▁family	-2291
欢迎	-2292
一起	-2293
▁Read	-2294
第三方	-2295
▁second	-2296
na	-2297
ush	-2298
cell	-2299
▁major	-2300
atural	-2301
▁Internet	-2302
登录	-2303
uck	-2304
▁li	-2305
▁;	-2306
▁Cal	-2307
出口	-2308
▁lat	-2309
▁based	-2310
cript	-2311
itchen	-2312
移动	-2313
idd	-2314
▁PHP	-2315
▁sl	-2316
▁put	-2317
负责	-2318
▁install	-2319
▁OR	-2320
ley	-2321
▁understand	-2322
经验	-2323
▁web	-2324
▁econom	-2325
其它	-2326
▁Semiconductor	-2327
35	-2328
员工	-2329
▁med	-2330
▁applications	-2331
▁fil	-2332
错误	-2333
ogle	-2334
联合	-2335
Ch	-2336
集团	-2337
iety	-2338
正确	-2339
▁express	-2340
▁range	-2341
斯特	-2342
▁asked	-2343
▁local	-2344
AB	-2345
45	-2346
▁Pal	-2347
▁dest	-2348
可以在	-2349
▁conditions	-2350
ille	-2351
ili	-2352
▁past	-2353
▁present	-2354
▁environment	-2355
▁proble	-2356
oney	-2357
itted	-2358
体验	-2359
▁Af	-2360
▁Play	-2361
▁interests	-2362
oo	-2363
ired	-2364
▁feel	-2365
▁countries	-2366
▁job	-2367
应用程序	-2368
▁case	-2369
现代	-2370
而且	-2371
▁par	-2372
包含	-2373
商务	-2374
fa	-2375
提出	-2376
的大	-2377
ccess	-2378
▁systems	-2379
▁维基百科	-2380
gg	-2381
删除	-2382
那里	-2383
irit	-2384
zhou	-2385
▁appro	-2386
▁land	-2387
▁terms	-2388
ao	-2389
yd	-2390
ari	-2391
性的	-2392
▁Prof	-2393
▁example	-2394
▁front	-2395
机械	-2396
购买	-2397
uan	-2398
▁whe	-2399
▁iss	-2400
▁quest	-2401
▁50	-2402
▁integ	-2403
88	-2404
泳池	-2405
▁Rep	-2406
istration	-2407
▁opp	-2408
孩子	-2409
满足	-2410
▁cam	-2411
iven	-2412
▁too	-2413
▁love	-2414
▁next	-2415
2)	-2416
厨房	-2417
▁ON	-2418
ework	-2419
▁another	-2420
▁employ	-2421
▁reserv	-2422
partments	-2423
▁2014	-2424
▁press	-2425
需求	-2426
▁Med	-2427
CT	-2428
ger	-2429
区域	-2430
▁companies	-2431
cel	-2432
▁fav	-2433
定的	-2434
▁天	-2435
▁statistics	-2436
ape	-2437
urther	-2438
德国	-2439
日本	-2440
hib	-2441
not	-2442
fect	-2443
irt	-2444
损失	-2445
空调	-2446
早餐	-2447
ories	-2448
ables	-2449
OU	-2450
:4.	-2451
▁food	-2452
▁bathroom	-2453
▁kind	-2454
有效	-2455
运行	-2456
▁stre	-2457
那么	-2458
▁mov	-2459
▁bas	-2460
cent	-2461
iang	-2462
▁materials	-2463
产生	-2464
▁Sm	-2465
▁Black	-2466
▁private	-2467
▁below	-2468
OM	-2469
的酒店	-2470
咖啡	-2471
▁el	-2472
osp	-2473
▁la	-2474
ming	-2475
整个	-2476
useum	-2477
OW	-2478
采用	-2479
ump	-2480
ried	-2481
▁Val	-2482
▁oc	-2483
▁drive	-2484
▁went	-2485
也是	-2486
ysis	-2487
33	-2488
只有	-2489
ledge	-2490
▁Phot	-2491
▁这是	-2492
▁allow	-2493
ramework	-2494
ingle	-2495
55	-2496
海滩	-2497
▁Taiw	-2498
▁human	-2499
想要	-2500
▁hig	-2501
一样	-2502
班牙	-2503
西班牙	-2504
▁Content	-2505
允许	-2506
利亚	-2507
星级	-2508
▁beh	-2509
▁1,	-2510
▁Per	-2511
▁reason	-2512
▁larg	-2513
公园	-2514
目标	-2515
▁typ	-2516
▁live	-2517
结构	-2518
之后	-2519
▁+	-2520
▁Kong	-2521
评论	-2522
对于	-2523
成功	-2524
ijing	-2525
▁video	-2526
自然	-2527
优惠	-2528
aurant	-2529
发送	-2530
▁#	-2531
ids	-2532
▁sat	-2533
21	-2534
▁Aust	-2535
wikipedia	-2536
▁以	-2537
udio	-2538
▁group	-2539
说明	-2540
yle	-2541
保持	-2542
学习	-2543
服务器	-2544
▁Business	-2545
rad	-2546
html	-2547
urch	-2548
舒适	-2549
▁免费	-2550
▁Ant	-2551
▁related	-2552
CH	-2553
密码	-2554
▁Shanghai	-2555
和华	-2556
▁latest	-2557
now	-2558
媒体	-2559
▁Fin	-2560
自由的	-2561
▁Are	-2562
▁pool	-2563
用途	-2564
委员	-2565
illion	-2566
▁event	-2567
无线	-2568
gin	-2569
vis	-2570
eration	-2571
▁要	-2572
duc	-2573
▁return	-2574
儿童	-2575
帐户	-2576
▁高	-2577
▁El	-2578
atform	-2579
伙伴	-2580
▁Hostel	-2581
▁certain	-2582
费用	-2583
-0	-2584
eg	-2585
€“	-2586
mber	-2587
耶和华	-2588
▁Fe	-2589
▁SN	-2590
enef	-2591
duce	-2592
▁Bal	-2593
LE	-2594
北京	-2595
eter	-2596
▁High	-2597
这是	-2598
那些	-2599
▁keep	-2600
数字	-2601
▁Mod	-2602
▁generate	-2603
usic	-2604
朋友	-2605
▁Vis	-2606
配有	-2607
它们	-2608
▁pri	-2609
search	-2610
表示您	-2611
▁Gener	-2612
制造商	-2613
ively	-2614
▁tru	-2615
uture	-2616
▁upon	-2617
▁course	-2618
可能会	-2619
ese	-2620
▁line	-2621
ats	-2622
▁sens	-2623
▁unt	-2624
▁health	-2625
hic	-2626
used	-2627
▁looking	-2628
和其他	-2629
ividual	-2630
香港	-2631
igital	-2632
修改	-2633
收集	-2634
▁less	-2635
iday	-2636
▁easy	-2637
fm	-2638
电子邮件	-2639
▁Lord	-2640
▁loss	-2641
列表	-2642
▁fre	-2643
科学	-2644
itive	-2645
▁body	-2646
▁Del	-2647
▁Russ	-2648
▁pres	-2649
持续	-2650
▁obtain	-2651
更改日期	-2652
▁side	-2653
Ag	-2654
建立	-2655
▁condition	-2656
健康	-2657
95	-2658
▁Mon	-2659
▁pack	-2660
全书	-2661
antrade	-2662
▁Indust	-2663
保险	-2664
适用于	-2665
▁Name	-2666
▁better	-2667
也不	-2668
ST	-2669
▁tour	-2670
娱乐	-2671
era	-2672
vious	-2673
▁York	-2674
▁customer	-2675
34	-2676
▁z	-2677
最新	-2678
idence	-2679
▁really	-2680
apt	-2681
▁(19	-2682
6.	-2683
▁solutions	-2684
▁hold	-2685
百科全书	-2686
▁Station	-2687
承诺	-2688
ATION	-2689
embers	-2690
并不	-2691
ances	-2692
罗斯	-2693
quare	-2694
▁Data	-2695
▁might	-2696
▁become	-2697
ison	-2698
▁*	-2699
▁beaut	-2700
只是	-2701
▁perm	-2702
▁这些	-2703
vers	-2704
ither	-2705
ises	-2706
▁sol	-2707
2,	-2708
一种	-2709
▁profess	-2710
9.	-2711
但是	-2712
▁ST	-2713
▁Terms	-2714
电脑	-2715
▁2017	-2716
ancial	-2717
▁center	-2718
▁possible	-2719
▁cr	-2720
▁After	-2721
▁computer	-2722
▁ago	-2723
nov	-2724
▁improve	-2725
商标	-2726
arant	-2727
▁clean	-2728
ull	-2729
anced	-2730
自由的百科全书	-2731
ara	-2732
联网	-2733
▁Italy	-2734
▁function	-2735
▁comb	-2736
▁author	-2737
出现	-2738
▁His	-2739
全部	-2740
▁talk	-2741
▁complete	-2742
▁rent	-2743
ication	-2744
妈妈	-2745
▁Trans	-2746
▁success	-2747
ope	-2748
▁Met	-2749
▁copy	-2750
准备	-2751
▁building	-2752
▁Tw	-2753
▁docu	-2754
▁never	-2755
▁请更改日期	-2756
▁comfort	-2757
并以	-2758
▁desk	-2759
▁lic	-2760
▁标准房	-2761
aring	-2762
▁请更改日期或	-2763
wise	-2764
orage	-2765
75	-2766
▁人	-2767
空间	-2768
ouble	-2769
▁ener	-2770
▁Beijing	-2771
▁techn	-2772
ager	-2773
原因	-2774
:00	-2775
提供的	-2776
CD	-2777
▁pract	-2778
电话	-2779
获取	-2780
增加	-2781
TER	-2782
iol	-2783
▁User	-2784
品牌	-2785
board	-2786
出来	-2787
▁value	-2788
▁videos	-2789
rows	-2790
▁among	-2791
ira	-2792
▁AND	-2793
▁Central	-2794
▁responsible	-2795
查看所有	-2796
刷新	-2797
告诉	-2798
raw	-2799
hod	-2800
▁Acc	-2801
主义	-2802
▁4.	-2803
ening	-2804
▁char	-2805
▁send	-2806
测量	-2807
iod	-2808
▁cal	-2809
▁cult	-2810
ructure	-2811
存储	-2812
成本	-2813
SS	-2814
目前	-2815
lished	-2816
ands	-2817
智能	-2818
arly	-2819
▁bar	-2820
委员会	-2821
ican	-2822
change	-2823
完整	-2824
成员	-2825
更新	-2826
ived	-2827
▁face	-2828
旅舍	-2829
▁Bed	-2830
▁Google	-2831
perature	-2832
符合	-2833
考虑	-2834
oul	-2835
酒店的空房	-2836
ograph	-2837
及其	-2838
基于	-2839
▁imp	-2840
▁Now	-2841
cookie	-2842
▁Afric	-2843
arth	-2844
▁These	-2845
▁needs	-2846
▁请更改日期或查看所有	-2847
购物	-2848
▁26	-2849
▁choice	-2850
▁individual	-2851
une	-2852
What	-2853
▁Resort	-2854
团队	-2855
或其他	-2856
side	-2857
▁lot	-2858
▁Dr	-2859
imum	-2860
verage	-2861
酒店的空房状况	-2862
旅客	-2863
▁巴	-2864
添加	-2865
▁Bre	-2866
▁team	-2867
▁Mac	-2868
▁continuing	-2869
▁gra	-2870
▁clos	-2871
▁art	-2872
▁try	-2873
输入	-2874
▁2018	-2875
ething	-2876
独立	-2877
cle	-2878
▁future	-2879
ma	-2880
形式	-2881
结束	-2882
▁text	-2883
yl	-2884
▁park	-2885
▁tell	-2886
▁looked	-2887
不可	-2888
opping	-2889
commend	-2890
▁brand	-2891
▁files	-2892
▁Get	-2893
aging	-2894
入住	-2895
▁Quest	-2896
48	-2897
ones	-2898
0.303	-2899
0.30319	-2900
:4.0.30319	-2901
▁That	-2902
ilt	-2903
abor	-2904
▁game	-2905
▁Island	-2906
omb	-2907
的问题	-2908
▁ident	-2909
▁situ	-2910
的话	-2911
▁Rest	-2912
▁field	-2913
omen	-2914
努力	-2915
生命	-2916
的其他	-2917
ham	-2918
▁并	-2919
为了	-2920
▁es	-2921
ides	-2922
▁Post	-2923
▁email	-2924
本协议	-2925
▁engine	-2926
▁tickets	-2927
PR	-2928
▁sure	-2929
3,	-2930
▁effic	-2931
▁加	-2932
船票价格	-2933
▁energy	-2934
▁big	-2935
▁Framework	-2936
▁close	-2937
▁Server	-2938
一步	-2939
▁ASP	-2940
▁means	-2941
irm	-2942
▁但是	-2943
▁tre	-2944
▁ensure	-2945
UN	-2946
游泳池	-2947
IG	-2948
感觉	-2949
lin	-2950
▁Then	-2951
学生	-2952
ask	-2953
ires	-2954
▁skin	-2955
ently	-2956
▁Asia	-2957
▁European	-2958
▁Develop	-2959
▁treat	-2960
恢复	-2961
期间	-2962
▁areas	-2963
▁table	-2964
个人信息	-2965
上帝	-2966
适合您的	-2967
▁IS	-2968
▁took	-2969
reement	-2970
▁Manufactur	-2971
29	-2972
▁•	-2973
bit	-2974
▁8.	-2975
▁modern	-2976
供应商	-2977
▁Cas	-2978
▁vol	-2979
itten	-2980
▁specific	-2981
ORD	-2982
作品	-2983
▁door	-2984
▁Use	-2985
▁Blog	-2986
sk	-2987
食品	-2988
▁mean	-2989
步行	-2990
▁Br	-2991
▁object	-2992
贸易	-2993
prise	-2994
▁report	-2995
公共	-2996
翻译	-2997
door	-2998
▁Map	-2999
Ad	-3000
iful	-3001
▁Admin	-3002
▁cannot	-3003
▁Dist	-3004
augh	-3005
一直	-3006
轮渡	-3007
PS	-3008
ube	-3009
▁social	-3010
struction	-3011
▁device	-3012
▁%	-3013
cret	-3014
传统	-3015
▁Type	-3016
▁TO	-3017
导致	-3018
手机	-3019
ees	-3020
▁News	-3021
▁estab	-3022
▁language	-3023
您在	-3024
ett	-3025
ules	-3026
▁orig	-3027
表示您接受	-3028
不要	-3029
限制	-3030
oll	-3031
▁Show	-3032
▁Market	-3033
▁images	-3034
▁因此	-3035
▁distribut	-3036
声明	-3037
▁sites	-3038
▁benef	-3039
▁公寓	-3040
继续浏览	-3041
▁research	-3042
▁download	-3043
▁vehic	-3044
▁something	-3045
▁28	-3046
▁Agriaffaires	-3047
▁times	-3048
▁policy	-3049
化的	-3050
▁display	-3051
▁otherwise	-3052
pose	-3053
▁Bel	-3054
▁eyes	-3055
▁share	-3056
虽然	-3057
mit	-3058
▁mar	-3059
便宜	-3060
▁Sale	-3061
▁About	-3062
配置	-3063
不同的	-3064
▁Ang	-3065
▁connect	-3066
ohn	-3067
不得	-3068
机会	-3069
▁Ne	-3070
▁analysis	-3071
Pro	-3072
ategory	-3073
▁ele	-3074
过去	-3075
并以此	-3076
ternal	-3077
▁为了	-3078
▁working	-3079
葡萄	-3080
val	-3081
▁according	-3082
ured	-3083
▁compl	-3084
▁method	-3085
▁ann	-3086
▁sever	-3087
首页	-3088
▁gr	-3089
代理	-3090
选项	-3091
ondon	-3092
▁fully	-3093
▁offic	-3094
支付	-3095
che	-3096
▁SM	-3097
▁particular	-3098
▁mess	-3099
▁news	-3100
7.	-3101
面的	-3102
▁Out	-3103
iting	-3104
ention	-3105
▁since	-3106
Th	-3107
网站浏览	-3108
▁limited	-3109
▁如何	-3110
▁Mal	-3111
tt	-3112
停车	-3113
ients	-3114
▁80	-3115
▁Agreement	-3116
star	-3117
则表示您接受	-3118
继续浏览本网站	-3119
一次	-3120
服务和帮助	-3121
完成网站浏览	-3122
并以此为您提供	-3123
完成网站浏览统计	-3124
▁若继续浏览本网站	-3125
适合您的服务和帮助	-3126
并以此为您提供适合您的服务和帮助	-3127
明确	-3128
▁providing	-3129
▁deliver	-3130
ental	-3131
▁today	-3132
▁addition	-3133
ico	-3134
ule	-3135
▁upd	-3136
▁quick	-3137
86	-3138
▁airport	-3139
▁Ref	-3140
▁necess	-3141
▁Log	-3142
amster	-3143
AG	-3144
ailed	-3145
▁联系	-3146
▁perfect	-3147
▁results	-3148
▁24-	-3149
▁马	-3150
▁dr	-3151
▁Click	-3152
▁Software	-3153
electronics	-3154
ills	-3155
▁wind	-3156
甚至	-3157
银行	-3158
▁...	-3159
▁requirements	-3160
▁将	-3161
▁May	-3162
▁inc	-3163
▁您可以	-3164
▁Jav	-3165
acter	-3166
▁Here	-3167
ony	-3168
最大的	-3169
准确	-3170
▁Suites	-3171
的价格	-3172
▁PC	-3173
imate	-3174
▁However	-3175
▁week	-3176
gether	-3177
创新	-3178
▁admin	-3179
▁Direct	-3180
▁together	-3181
ties	-3182
URY	-3183
ffee	-3184
hu	-3185
clusive	-3186
elcome	-3187
▁global	-3188
▁others	-3189
▁subject	-3190
▁version	-3191
▁tax	-3192
▁reviews	-3193
模式	-3194
alf	-3195
求信息	-3196
?”	-3197
▁HTML	-3198
▁position	-3199
weet	-3200
花园	-3201
Agriaffaires	-3202
网页	-3203
▁rout	-3204
▁protect	-3205
▁government	-3206
.”	-3207
提交	-3208
自行	-3209
▁four	-3210
▁note	-3211
echnologies	-3212
身体	-3213
供求信息	-3214
▁Centre	-3215
▁STM	-3216
ained	-3217
▁Sing	-3218
▁circ	-3219
▁selected	-3220
会员	-3221
授权	-3222
▁various	-3223
▁popular	-3224
造成	-3225
ien	-3226
hour	-3227
▁move	-3228
aven	-3229
▁short	-3230
▁search	-3231
▁respect	-3232
go	-3233
参与	-3234
▁br	-3235
▁further	-3236
▁这个	-3237
相同	-3238
vell	-3239
图片	-3240
▁AP	-3241
▁Products	-3242
互联网	-3243
专家	-3244
网上	-3245
▁IT	-3246
▁Enter	-3247
▁called	-3248
东西	-3249
▁parties	-3250
▁Art	-3251
所有的	-3252
▁mom	-3253
▁Find	-3254
世纪	-3255
套房	-3256
ians	-3257
ze	-3258
pre	-3259
▁Bud	-3260
▁size	-3261
PDF	-3262
▁LORD	-3263
ENTURY	-3264
iam	-3265
▁whether	-3266
▁Inter	-3267
▁image	-3268
▁partners	-3269
31	-3270
选择的	-3271
▁London	-3272
▁consum	-3273
icroelectronics	-3274
最佳	-3275
▁choose	-3276
zz	-3277
▁»	-3278
最低	-3279
▁Museum	-3280
▁而	-3281
计算机	-3282
▁2012	-3283
▁Online	-3284
agram	-3285
寻找	-3286
驱动	-3287
anks	-3288
ecut	-3289
5.	-3290
▁Via	-3291
▁space	-3292
▁store	-3293
▁关于	-3294
▁living	-3295
obe	-3296
▁Policy	-3297
▁Article	-3298
▁represent	-3299
▁activities	-3300
▁公司	-3301
▁rate	-3302
▁complet	-3303
▁英	-3304
▁above	-3305
▁点击	-3306
应当	-3307
ops	-3308
▁现在	-3309
价值	-3310
▁我的	-3311
hing	-3312
▁199	-3313
▁网站	-3314
ffic	-3315
▁Questions	-3316
分享	-3317
定义	-3318
特殊	-3319
mercial	-3320
▁圣	-3321
如此	-3322
实际	-3323
的地方	-3324
box	-3325
ortun	-3326
ridge	-3327
记录	-3328
▁favor	-3329
rael	-3330
▁主	-3331
▁until	-3332
▁除	-3333
otor	-3334
▁Rel	-3335
▁Cam	-3336
▁thought	-3337
aul	-3338
Hamster	-3339
▁recommend	-3340
博物	-3341
▁etc	-3342
▁members	-3343
▁因为	-3344
纽约	-3345
oon	-3346
▁relations	-3347
合作伙伴	-3348
▁promise	-3349
▁throughout	-3350
38	-3351
▁USA	-3352
打开	-3353
▁Sant	-3354
水平	-3355
son	-3356
CC	-3357
服务的	-3358
emark	-3359
▁亚	-3360
第二	-3361
▁making	-3362
每个	-3363
ona	-3364
▁27	-3365
▁pub	-3366
▁period	-3367
▁·	-3368
▁对于	-3369
mail	-3370
▁Tor	-3371
罗马	-3372
iple	-3373
▁Act	-3374
itation	-3375
▁school	-3376
不断	-3377
▁这间	-3378
▁options	-3379
风险	-3380
▁ach	-3381
▁single	-3382
uel	-3383
rated	-3384
共和	-3385
▁Lim	-3386
限于	-3387
▁safety	-3388
3)	-3389
年的	-3390
俄罗斯	-3391
▁pers	-3392
▁此外	-3393
▁Sub	-3394
▁whole	-3395
▁Kingdom	-3396
▁Av	-3397
▁Green	-3398
样的	-3399
▁AM	-3400
减少	-3401
▁buy	-3402
▁const	-3403
vention	-3404
▁Israel	-3405
ke	-3406
今天	-3407
部门	-3408
▁Back	-3409
介绍	-3410
▁answers	-3411
地点	-3412
学校	-3413
真的	-3414
ume	-3415
apore	-3416
astic	-3417
▁password	-3418
色列	-3419
chit	-3420
▁XHamster	-3421
但不	-3422
参加	-3423
▁cut	-3424
最大	-3425
ogn	-3426
▁register	-3427
受到	-3428
博物馆	-3429
heng	-3430
▁bal	-3431
▁Mach	-3432
▁innov	-3433
▁money	-3434
VD	-3435
一下	-3436
ipped	-3437
▁Real	-3438
▁largest	-3439
儿子	-3440
行动	-3441
▁Her	-3442
▁plan	-3443
一定	-3444
▁0.1	-3445
这么	-3446
▁compet	-3447
检测	-3448
umb	-3449
▁Ge	-3450
▁regard	-3451
▁下	-3452
内部	-3453
enn	-3454
ivery	-3455
卫生	-3456
▁got	-3457
广场	-3458
您可以	-3459
▁code	-3460
▁known	-3461
cellent	-3462
豪华	-3463
▁viol	-3464
▁Power	-3465
内的	-3466
▁AD	-3467
▁CD	-3468
rought	-3469
代码	-3470
medi	-3471
duced	-3472
ctions	-3473
然而	-3474
ivity	-3475
多个	-3476
真正	-3477
▁East	-3478
0.00	-3479
▁Har	-3480
▁Ret	-3481
▁solution	-3482
基本	-3483
▁Top	-3484
▁strong	-3485
2016	-3486
▁why	-3487
ged	-3488
house	-3489
▁written	-3490
▁22	-3491
家酒店	-3492
roid	-3493
▁given	-3494
温度	-3495
▁CON	-3496
▁transfer	-3497
46	-3498
crib	-3499
QL	-3500
▁purch	-3501
▁booking	-3502
aid	-3503
▁media	-3504
▁意大利	-3505
车辆	-3506
的权利	-3507
ford	-3508
▁Management	-3509
增长	-3510
▁mind	-3511
itness	-3512
elt	-3513
ready	-3514
▁risk	-3515
▁manufact	-3516
.[	-3517
inue	-3518
▁mobile	-3519
来说	-3520
▁II	-3521
▁Bro	-3522
▁king	-3523
▁purpose	-3524
展示	-3525
▁date	-3526
▁See	-3527
▁reli	-3528
pect	-3529
ream	-3530
▁Sim	-3531
wards	-3532
▁model	-3533
▁Est	-3534
8.	-3535
损害	-3536
▁Commun	-3537
▁protection	-3538
icated	-3539
▁bo	-3540
发布的	-3541
bour	-3542
▁lay	-3543
治疗	-3544
回答	-3545
▁platform	-3546
You	-3547
angzhou	-3548
css	-3549
▁€	-3550
特定	-3551
▁notice	-3552
▁source	-3553
▁平	-3554
500	-3555
cont	-3556
▁2013	-3557
arent	-3558
▁record	-3559
▁Of	-3560
vest	-3561
▁Germany	-3562
ots	-3563
传感	-3564
实时	-3565
通常	-3566
课程	-3567
▁Old	-3568
▁tot	-3569
▁storage	-3570
▁Grand	-3571
经营	-3572
当地	-3573
终止	-3574
ems	-3575
▁也	-3576
▁小	-3577
改变	-3578
相信	-3579
了一个	-3580
▁Opt	-3581
▁Email	-3582
▁thing	-3583
ole	-3584
Ph	-3585
▁Super	-3586
作用	-3587
ippo	-3588
▁brows	-3589
ground	-3590
办公	-3591
chitect	-3592
版权	-3593
new	-3594
的住宿	-3595
▁claim	-3596
▁due	-3597
▁learn	-3598
乘客	-3599
▁kitchen	-3600
▁temperature	-3601
前往	-3602
▁parts	-3603
aurants	-3604
▁believe	-3605
▁beautiful	-3606
采取	-3607
▁Er	-3608
▁laws	-3609
▁个	-3610
YIP	-3611
▁ID	-3612
▁ter	-3613
▁depend	-3614
确定	-3615
一切	-3616
共和国	-3617
附近酒店	-3618
▁60	-3619
▁sale	-3620
印度	-3621
▁Privacy	-3622
minute	-3623
▁common	-3624
▁($	-3625
▁TC	-3626
▁Singapore	-3627
可靠	-3628
apest	-3629
▁resources	-3630
54	-3631
▁appear	-3632
▁General	-3633
▁designed	-3634
37	-3635
消费	-3636
sel	-3637
浏览器	-3638
▁Africa	-3639
▁sent	-3640
--	-3641
oid	-3642
▁Corpor	-3643
▁flower	-3644
▁along	-3645
▁CENTURY	-3646
rap	-3647
▁一个	-3648
传感器	-3649
ened	-3650
图像	-3651
不知道	-3652
▁saw	-3653
方便	-3654
现场	-3655
▁bring	-3656
加工	-3657
容易	-3658
额外	-3659
▁hol	-3660
fully	-3661
▁lowest	-3662
多数	-3663
未经	-3664
▁Mr	-3665
atory	-3666
理想	-3667
ibr	-3668
▁5.	-3669
▁Video	-3670
▁American	-3671
cond	-3672
ilet	-3673
▁educ	-3674
▁Spain	-3675
ano	-3676
▁held	-3677
▁stars	-3678
培训	-3679
Hippo	-3680
创造	-3681
▁Guests	-3682
违反	-3683
酒吧	-3684
▁fa	-3685
▁didn	-3686
ief	-3687
▁Paris	-3688
▁directly	-3689
重新	-3690
urb	-3691
ouch	-3692
▁Flow	-3693
机器	-3694
的方式	-3695
ches	-3696
状态	-3697
▁necessary	-3698
venue	-3699
▁Pres	-3700
▁done	-3701
▁opportun	-3702
出的	-3703
▁如果你	-3704
▁national	-3705
AH	-3706
当前	-3707
39	-3708
看着	-3709
▁Cur	-3710
zer	-3711
▁Mil	-3712
▁Sol	-3713
▁foc	-3714
▁(200	-3715
▁Over	-3716
▁floor	-3717
确认	-3718
onents	-3719
▁types	-3720
▁connection	-3721
▁Open	-3722
▁Check	-3723
之间的	-3724
my	-3725
eral	-3726
▁Guest	-3727
转换	-3728
▁domain	-3729
压力	-3730
▁IP	-3731
aily	-3732
▁Republic	-3733
取得	-3734
istr	-3735
▁Line	-3736
▁trade	-3737
该等	-3738
asing	-3739
▁conven	-3740
▁already	-3741
CE	-3742
坐落	-3743
达到	-3744
▁EN	-3745
▁Price	-3746
▁Det	-3747
▁John	-3748
动物	-3749
▁3*	-3750
▁Villa	-3751
账户	-3752
▁Prov	-3753
▁rates	-3754
oice	-3755
保留	-3756
▁Fore	-3757
▁experi	-3758
▁其他	-3759
inter	-3760
ESS	-3761
▁由于	-3762
声音	-3763
most	-3764
▁Word	-3765
▁separ	-3766
不到	-3767
▁Skip	-3768
erc	-3769
-1	-3770
plement	-3771
▁includes	-3772
IR	-3773
书面	-3774
学院	-3775
比较	-3776
营销	-3777
▁Count	-3778
IF	-3779
▁用户	-3780
▁7.	-3781
IND	-3782
inux	-3783
▁pot	-3784
▁via	-3785
认证	-3786
降低	-3787
▁PRO	-3788
上海	-3789
▁repl	-3790
isions	-3791
▁associ	-3792
按照	-3793
▁29	-3794
▁unique	-3795
ama	-3796
ging	-3797
▁girl	-3798
▁deal	-3799
▁Austral	-3800
ched	-3801
▁flat	-3802
▁receive	-3803
▁maintain	-3804
77	-3805
行政	-3806
觉得	-3807
aken	-3808
▁later	-3809
▁amount	-3810
▁contract	-3811
风格	-3812
▁enc	-3813
▁err	-3814
▁works	-3815
领导	-3816
▁(1)	-3817
▁centre	-3818
▁screen	-3819
火车	-3820
▁tim	-3821
▁sound	-3822
者的	-3823
rab	-3824
ered	-3825
screen	-3826
▁often	-3827
-5	-3828
▁Custom	-3829
未来	-3830
▁Mag	-3831
▁Sil	-3832
▁changes	-3833
▁natural	-3834
▁CH	-3835
▁Ferryto	-3836
交通	-3837
▁Cond	-3838
44	-3839
IV	-3840
▁布	-3841
hold	-3842
数量	-3843
针对	-3844
出口商	-3845
有一个	-3846
进一步	-3847
▁ground	-3848
▁Videos	-3849
race	-3850
ving	-3851
▁Lab	-3852
▁box	-3853
liers	-3854
▁Dev	-3855
▁MAC	-3856
▁measure	-3857
65	-3858
立即	-3859
轻松	-3860
▁wa	-3861
▁streng	-3862
人和	-3863
开放	-3864
理解	-3865
制作	-3866
关键	-3867
▁hot	-3868
▁mag	-3869
▁apply	-3870
▁entire	-3871
▁matter	-3872
▁vehicle	-3873
su	-3874
▁series	-3875
▁electric	-3876
赔偿	-3877
▁music	-3878
▁出	-3879
(19	-3880
▁history	-3881
医疗	-3882
▁Hu	-3883
▁Club	-3884
▁Applic	-3885
宗教	-3886
▁UK	-3887
▁unto	-3888
▁Elect	-3889
返回	-3890
itut	-3891
rate	-3892
▁cred	-3893
olf	-3894
ror	-3895
▁Cat	-3896
▁Eas	-3897
▁legal	-3898
▁tools	-3899
必要	-3900
▁sales	-3901
世界上	-3902
▁oil	-3903
▁once	-3904
措施	-3905
ANT	-3906
真实	-3907
Res	-3908
的一个	-3909
anning	-3910
ably	-3911
查询	-3912
▁Used	-3913
荷兰	-3914
oke	-3915
▁$3	-3916
▁several	-3917
over	-3918
▁processing	-3919
PC	-3920
▁Sal	-3921
▁Kore	-3922
最高	-3923
的产品	-3924
▁Organ	-3925
▁Lear	-3926
▁simple	-3927
▁ability	-3928
▁Instagram	-3929
mark	-3930
但不限于	-3931
▁attract	-3932
▁across	-3933
▁sex	-3934
▁2010	-3935
▁arriv	-3936
▁months	-3937
▁Sam	-3938
▁included	-3939
va	-3940
▁young	-3941
的一部分	-3942
▁print	-3943
配备	-3944
lood	-3945
▁23	-3946
▁inde	-3947
▁conditioning	-3948
速度	-3949
▁ever	-3950
▁liable	-3951
▁breakfast	-3952
丰富	-3953
效果	-3954
erve	-3955
▁请注意	-3956
▁damage	-3957
▁higher	-3958
▁Apartments	-3959
4)	-3960
IA	-3961
ament	-3962
▁secure	-3963
斯坦	-3964
▁jobs	-3965
▁cover	-3966
rench	-3967
▁Gold	-3968
▁devices	-3969
68	-3970
TS	-3971
▁begin	-3972
▁particip	-3973
▁speed	-3974
▁having	-3975
▁supply	-3976
离开	-3977
back	-3978
▁general	-3979
▁monitor	-3980
▁》	-3981
▁用	-3982
rig	-3983
市中心	-3984
ension	-3985
▁father	-3986
▁million	-3987
遵守	-3988
金属	-3989
27.	-3990
ached	-3991
▁Found	-3992
休息	-3993
广泛	-3994
生物	-3995
ani	-3996
ini	-3997
▁然而	-3998
rect	-3999
▁edit	-4000
▁doing	-4001
MS	-4002
ka	-4003
神的	-4004
▁prior	-4005
▁Review	-4006
下列	-4007
▁Bay	-4008
▁所以	-4009
amic	-4010
无线网络	-4011
▁determ	-4012
集成	-4013
▁Oct	-4014
mm	-4015
加入	-4016
▁yet	-4017
istance	-4018
▁UN	-4019
▁Jan	-4020
▁没有	-4021
▁Water	-4022
lectronic	-4023
▁character	-4024
年轻	-4025
erts	-4026
▁Cons	-4027
▁told	-4028
▁travell	-4029
提示	-4030
新闻	-4031
bon	-4032
itch	-4033
▁多	-4034
的时间	-4035
的最新	-4036
▁ple	-4037
▁ferries	-4038
covery	-4039
urance	-4040
arantee	-4041
人们	-4042
社区	-4043
▁gre	-4044
lu	-4045
美元	-4046
金融	-4047
▁properties	-4048
共同	-4049
fic	-4050
▁advance	-4051
▁Development	-4052
有的	-4053
ications	-4054
TH	-4055
的位置	-4056
itute	-4057
▁wide	-4058
▁First	-4059
▁Private	-4060
ya	-4061
▁excellent	-4062
点评	-4063
的海	-4064
uxury	-4065
-2	-4066
cn	-4067
▁moment	-4068
raft	-4069
▁Square	-4070
以色列	-4071
▁Law	-4072
▁Office	-4073
景点	-4074
淋浴	-4075
▁Day	-4076
▁professional	-4077
卧室	-4078
咨询	-4079
507	-4080
ival	-4081
Berry	-4082
mical	-4083
▁fail	-4084
▁prop	-4085
uses	-4086
最新发布的	-4087
▁economic	-4088
变化	-4089
名的	-4090
我们将	-4091
▁Mont	-4092
▁immedi	-4093
▁到	-4094
实施	-4095
oph	-4096
▁根据	-4097
alls	-4098
▁ant	-4099
OD	-4100
独特	-4101
▁sil	-4102
iddle	-4103
light	-4104
iction	-4105
下来	-4106
西亚	-4107
▁either	-4108
▁students	-4109
▁financial	-4110
运输	-4111
burg	-4112
▁Cert	-4113
最新发布的供求信息	-4114
gu	-4115
▁35	-4116
▁War	-4117
▁digital	-4118
使用的	-4119
▁iron	-4120
▁true	-4121
▁advert	-4122
女人	-4123
▁404	-4124
▁Cour	-4125
operation	-4126
喜爱	-4127
某些	-4128
▁af	-4129
▁began	-4130
▁regul	-4131
有权	-4132
ags	-4133
porter	-4134
的高	-4135
维护	-4136
适用	-4137
ead	-4138
从而	-4139
包装	-4140
▁Cap	-4141
更加	-4142
路程	-4143
格式	-4144
▁People	-4145
AV	-4146
chip	-4147
▁rev	-4148
关联	-4149
父亲	-4150
讨论	-4151
▁ut	-4152
hens	-4153
▁mem	-4154
▁Live	-4155
bt	-4156
不仅	-4157
随时	-4158
重要的	-4159
▁Ju	-4160
just	-4161
▁Booking	-4162
▁problem	-4163
▁mer	-4164
phone	-4165
UD	-4166
流程	-4167
为什么	-4168
▁Bang	-4169
▁BlackBerry	-4170
xx	-4171
电影	-4172
经过	-4173
pper	-4174
eters	-4175
▁Control	-4176
▁implement	-4177
专利	-4178
里的	-4179
最好的	-4180
rain	-4181
▁concern	-4182
EG	-4183
la	-4184
随着	-4185
▁hands	-4186
▁words	-4187
▁Express	-4188
模型	-4189
▁作为	-4190
公司的	-4191
▁mass	-4192
▁creat	-4193
▁选择	-4194
▁makes	-4195
拿大	-4196
▁Prot	-4197
▁Taiwan	-4198
大会	-4199
▁far	-4200
▁transl	-4201
商店	-4202
gen	-4203
▁Hel	-4204
的情况下	-4205
85	-4206
▁red	-4207
▁类型	-4208
▁privacy	-4209
▁由	-4210
▁Mos	-4211
▁fast	-4212
▁pressure	-4213
▁4*	-4214
▁max	-4215
▁station	-4216
出了	-4217
性和	-4218
的客人	-4219
ober	-4220
停止	-4221
兴趣	-4222
▁age	-4223
▁phys	-4224
▁fire	-4225
▁discuss	-4226
▁warrant	-4227
令人	-4228
教会	-4229
清洁	-4230
2.0.	-4231
▁total	-4232
健身	-4233
▁sus	-4234
▁India	-4235
▁WiFi	-4236
duction	-4237
运营	-4238
orry	-4239
▁Town	-4240
▁sum	-4241
▁growth	-4242
后的	-4243
▁Up	-4244
不存在	-4245
▁says	-4246
▁Prices	-4247
▁contain	-4248
▁distribution	-4249
别墅	-4250
你将	-4251
无论	-4252
▁Adobe	-4253
▁recogn	-4254
aya	-4255
hance	-4256
▁Stat	-4257
49	-4258
用品	-4259
ras	-4260
是一种	-4261
本服务	-4262
ilar	-4263
▁Sex	-4264
才能	-4265
▁Sun	-4266
拉斯	-4267
men	-4268
▁Any	-4269
▁Sept	-4270
▁Some	-4271
▁Location	-4272
SD	-4273
UL	-4274
过程中	-4275
▁mark	-4276
▁comes	-4277
▁Engine	-4278
▁increase	-4279
▁training	-4280
周围	-4281
▁mount	-4282
▁optim	-4283
▁老	-4284
意见	-4285
来到	-4286
OC	-4287
的数据	-4288
unch	-4289
ville	-4290
▁hair	-4291
eal	-4292
inate	-4293
▁Main	-4294
▁Aug	-4295
▁Ber	-4296
▁self	-4297
riting	-4298
▁operation	-4299
▁trademark	-4300
▁就	-4301
可用	-4302
属于	-4303
ude	-4304
是什么	-4305
▁Hist	-4306
▁costs	-4307
▁stand	-4308
▁Special	-4309
提升	-4310
美丽	-4311
能源	-4312
色的	-4313
▁phone	-4314
js	-4315
保存	-4316
▁Saint	-4317
完美	-4318
董事	-4319
▁Usage	-4320
▁refer	-4321
包括但不限于	-4322
▁spirit	-4323
▁《	-4324
▁Cle	-4325
▁steel	-4326
▁projects	-4327
▁transport	-4328
模块	-4329
▁了解	-4330
force	-4331
▁star	-4332
▁Flash	-4333
▁Quick	-4334
授予	-4335
/201	-4336
▁demand	-4337
▁places	-4338
▁74	-4339
▁客房	-4340
66	-4341
TA	-4342
reg	-4343
aker	-4344
:2.0.	-4345
▁pict	-4346
50727.	-4347
:2.0.50727.	-4348
rie	-4349
unt	-4350
ceed	-4351
▁watch	-4352
atically	-4353
太阳	-4354
的内容	-4355
rast	-4356
ology	-4357
▁Breakfast	-4358
aser	-4359
▁Where	-4360
▁option	-4361
▁profile	-4362
▁restaurant	-4363
▁Inf	-4364
aching	-4365
▁least	-4366
▁equipped	-4367
空气	-4368
▁refresh	-4369
▁法国	-4370
▁daily	-4371
▁member	-4372
并在	-4373
政治	-4374
ena	-4375
hem	-4376
aced	-4377
▁prec	-4378
▁config	-4379
隐私政策	-4380
▁furn	-4381
▁subs	-4382
量的	-4383
▁英国	-4384
ounc	-4385
levant	-4386
▁action	-4387
▁technical	-4388
产业	-4389
复杂	-4390
拒绝	-4391
▁Max	-4392
▁从视频	-4393
▁cell	-4394
irtual	-4395
▁Build	-4396
▁Manager	-4397
规则	-4398
联合国	-4399
chan	-4400
illed	-4401
▁Test	-4402
▁goods	-4403
几个	-4404
提前	-4405
▁Game	-4406
▁ideal	-4407
调查	-4408
▁上海	-4409
▁sett	-4410
▁feature	-4411
▁selection	-4412
身份	-4413
uth	-4414
▁friends	-4415
▁sun	-4416
▁2011	-4417
▁promot	-4418
▁industrial	-4419
2-	-4420
▁cause	-4421
▁$30.00	-4422
▁respond	-4423
带来	-4424
▁LED	-4425
izing	-4426
▁Anal	-4427
▁delivery	-4428
▁Mel	-4429
▁mil	-4430
▁sav	-4431
▁bott	-4432
▁Project	-4433
▁activity	-4434
一般	-4435
08	-4436
▁polit	-4437
▁自	-4438
方面的	-4439
ector	-4440
selves	-4441
▁views	-4442
▁flowers	-4443
任务	-4444
oved	-4445
ensive	-4446
工艺	-4447
▁outdoor	-4448
▁September	-4449
成立	-4450
▁9.	-4451
ooking	-4452
▁foreign	-4453
伦敦	-4454
信用	-4455
品质	-4456
▁load	-4457
▁employees	-4458
MA	-4459
que	-4460
▁Rem	-4461
inf	-4462
▁study	-4463
▁nothing	-4464
▁previous	-4465
iti	-4466
UT	-4467
▁Tour	-4468
69	-4469
den	-4470
▁阅读	-4471
▁discl	-4472
ella	-4473
▁relax	-4474
▁commercial	-4475
虚拟	-4476
▁您的	-4477
▁Player	-4478
▁developed	-4479
ored	-4480
▁anything	-4481
▁offering	-4482
▁additional	-4483
车程	-4484
提供了	-4485
▁flex	-4486
有一	-4487
扩展	-4488
商品	-4489
▁Just	-4490
▁region	-4491
▁dry	-4492
▁driv	-4493
▁President	-4494
Wi	-4495
共享	-4496
▁Fre	-4497
▁Avenue	-4498
▁browser	-4499
oyal	-4500
▁allows	-4501
▁surround	-4502
证明	-4503
bed	-4504
▁Rad	-4505
▁=	-4506
优化	-4507
国内	-4508
▁neg	-4509
iment	-4510
▁Pass	-4511
▁variety	-4512
▁town	-4513
▁paper	-4514
▁Garden	-4515
▁School	-4516
bl	-4517
面前	-4518
▁lo	-4519
▁document	-4520
的服务	-4521
▁Pat	-4522
▁safe	-4523
▁easily	-4524
▁agreement	-4525
即使	-4526
▁fund	-4527
▁early	-4528
▁women	-4529
▁office	-4530
airs	-4531
上的用途	-4532
星期	-4533
目的地	-4534
▁Ire	-4535
▁Spe	-4536
▁Camp	-4537
▁cable	-4538
pecially	-4539
洗衣	-4540
▁Dub	-4541
▁construction	-4542
建设	-4543
收到	-4544
也可以	-4545
▁chall	-4546
visor	-4547
▁hour	-4548
AY	-4549
多种	-4550
▁Stud	-4551
▁cloud	-4552
▁wanted	-4553
▁yourself	-4554
▁questions	-4555
多少	-4556
平均	-4557
消息	-4558
iency	-4559
▁Japanese	-4560
效率	-4561
▁German	-4562
玻璃	-4563
▁Why	-4564
▁Travel	-4565
主题	-4566
理由	-4567
的最佳	-4568
itte	-4569
ggest	-4570
▁relationship	-4571
ding	-4572
▁meeting	-4573
▁needed	-4574
▁Microchip	-4575
引用	-4576
灵活	-4577
▁enough	-4578
力的	-4579
抵达	-4580
ikely	-4581
ouncil	-4582
▁French	-4583
▁garden	-4584
▁Program	-4585
▁文	-4586
租车	-4587
anz	-4588
▁ANY	-4589
pload	-4590
▁death	-4591
挑战	-4592
300	-4593
▁beach	-4594
航空	-4595
itle	-4596
▁son	-4597
tended	-4598
▁import	-4599
▁district	-4600
aiwantrade	-4601
!"	-4602
域名	-4603
实验	-4604
▁knowledge	-4605
CL	-4606
▁服务	-4607
▁relevant	-4608
那个	-4609
你可以	-4610
个人资料	-4611
这是一个	-4612
▁clear	-4613
▁Net	-4614
▁Trip	-4615
▁earth	-4616
osed	-4617
itter	-4618
▁woman	-4619
事情	-4620
aza	-4621
raz	-4622
itting	-4623
▁inform	-4624
▁October	-4625
▁Sch	-4626
67	-4627
看见	-4628
hel	-4629
▁Mad	-4630
▁Char	-4631
ession	-4632
▁America	-4633
▁investment	-4634
▁其	-4635
几乎	-4636
请求	-4637
▁EX	-4638
▁invol	-4639
ii	-4640
打印	-4641
结合	-4642
alt	-4643
▁SP	-4644
aged	-4645
▁white	-4646
▁continue	-4647
战略	-4648
▁Party	-4649
推荐	-4650
爱尔	-4651
:4.0.30319;	-4652
人类	-4653
▁unl	-4654
▁harm	-4655
感谢	-4656
uary	-4657
▁advant	-4658
只要	-4659
标签	-4660
▁accur	-4661
EO	-4662
唯一	-4663
意味	-4664
▁five	-4665
▁wire	-4666
ipping	-4667
▁except	-4668
:5	-4669
▁super	-4670
▁turned	-4671
▁question	-4672
PG	-4673
We	-4674
深圳	-4675
▁cou	-4676
▁HYIP	-4677
▁knew	-4678
▁photo	-4679
br	-4680
▁摩	-4681
aps	-4682
(200	-4683
▁sle	-4684
ny	-4685
或其	-4686
▁例如	-4687
▁track	-4688
▁Access	-4689
▁education	-4690
3-	-4691
以上	-4692
osh	-4693
sequ	-4694
aries	-4695
▁consent	-4696
复制	-4697
▁board	-4698
先生	-4699
▁卡	-4700
按钮	-4701
▁软件	-4702
▁bus	-4703
▁Area	-4704
▁leading	-4705
意思	-4706
▁drink	-4707
onder	-4708
▁occur	-4709
播放	-4710
爱尔兰	-4711
gress	-4712
ria	-4713
head	-4714
wood	-4715
▁Saf	-4716
▁guest	-4717
▁rental	-4718
▁Ireland	-4719
浴缸	-4720
美食	-4721
posit	-4722
▁Cast	-4723
▁价格	-4724
澳大利	-4725
▁Pan	-4726
▁Sea	-4727
▁received	-4728
▁sell	-4729
男人	-4730
EP	-4731
英语	-4732
▁Linux	-4733
▁built	-4734
▁color	-4735
▁complex	-4736
▁suggest	-4737
4,	-4738
LC	-4739
人士	-4740
▁6.	-4741
澳大利亚	-4742
▁Bank	-4743
▁capital	-4744
Ar	-4745
▁Sur	-4746
▁Copy	-4747
▁problems	-4748
▁marketing	-4749
XX	-4750
另一	-4751
租赁	-4752
▁Fair	-4753
▁cross	-4754
▁Global	-4755
▁Android	-4756
▁accordance	-4757
出售	-4758
gar	-4759
ges	-4760
▁75	-4761
▁sole	-4762
▁listening	-4763
▁IND	-4764
though	-4765
▁grant	-4766
▁command	-4767
ola	-4768
▁occ	-4769
享有	-4770
停车场	-4771
▁average	-4772
启动	-4773
所需	-4774
有些	-4775
竞争	-4776
ficult	-4777
▁Profile	-4778
告知	-4779
尽管	-4780
的小	-4781
ala	-4782
▁jo	-4783
oking	-4784
II	-4785
antly	-4786
▁2009	-4787
▁signific	-4788
化学	-4789
去了	-4790
背景	-4791
▁Pop	-4792
▁June	-4793
▁Russia	-4794
OG	-4795
合理	-4796
IES	-4797
▁ce	-4798
▁ten	-4799
▁foot	-4800
annels	-4801
▁August	-4802
▁opened	-4803
▁treatment	-4804
各项	-4805
稳定	-4806
aby	-4807
▁Sl	-4808
▁以下	-4809
▁stop	-4810
bsites	-4811
▁princ	-4812
tenance	-4813
▁deg	-4814
▁capac	-4815
▁surface	-4816
▁favorite	-4817
▁immediately	-4818
ci	-4819
认识	-4820
资产	-4821
数据和	-4822
▁intro	-4823
名字	-4824
的地	-4825
表面	-4826
axd	-4827
adem	-4828
▁Most	-4829
ailing	-4830
▁Learn	-4831
▁mechan	-4832
▁original	-4833
▁description	-4834
尺寸	-4835
▁mat	-4836
uration	-4837
nowledge	-4838
chitecture	-4839
▁copyright	-4840
▁Class	-4841
▁himself	-4842
ta	-4843
▁至	-4844
▁说	-4845
生成	-4846
▁Dom	-4847
▁Steam	-4848
▁achieve	-4849
".	-4850
Al	-4851
体的	-4852
评估	-4853
在任何	-4854
river	-4855
issions	-4856
▁特	-4857
ided	-4858
Advisor	-4859
▁official	-4860
▁community	-4861
双人	-4862
▁SH	-4863
▁0.2	-4864
bo	-4865
热门	-4866
▁第二	-4867
▁Spirit	-4868
▁Industry	-4869
▁operating	-4870
▁然后	-4871
▁shopping	-4872
ora	-4873
▁describ	-4874
▁exchange	-4875
它的	-4876
▁客人	-4877
▁sea	-4878
▁difficult	-4879
47	-4880
直到	-4881
orning	-4882
三个	-4883
行的	-4884
▁July	-4885
ociety	-4886
▁安	-4887
met	-4888
▁数据	-4889
zhen	-4890
▁Don	-4891
▁ang	-4892
▁effort	-4893
▁remain	-4894
▁Welcome	-4895
▁created	-4896
▁outside	-4897
合同	-4898
改善	-4899
▁搜索	-4900
渡轮航	-4901
class	-4902
▁credit	-4903
▁Australia	-4904
加坡	-4905
iki	-4906
▁seen	-4907
IAL	-4908
始终	-4909
acher	-4910
▁lower	-4911
▁Corporation	-4912
▁comfortable	-4913
事实	-4914
▁prefer	-4915
单位	-4916
母亲	-4917
▁speak	-4918
▁internet	-4919
▁你们	-4920
Resource	-4921
下的	-4922
▁2,	-4923
2015	-4924
▁charge	-4925
交友	-4926
▁affili	-4927
bar	-4928
gif	-4929
umn	-4930
hest	-4931
▁save	-4932
▁Intel	-4933
变得	-4934
意味着	-4935
本公司	-4936
▁glass	-4937
▁peace	-4938
▁lab	-4939
▁Star	-4940
▁plant	-4941
▁taken	-4942
hibition	-4943
▁however	-4944
▁registration	-4945
SC	-4946
长期	-4947
illing	-4948
▁nature	-4949
▁started	-4950
came	-4951
psite	-4952
中央	-4953
机票	-4954
▁gas	-4955
itable	-4956
▁Photo	-4957
▁deals	-4958
室外	-4959
屏幕	-4960
▁Cre	-4961
就可以	-4962
刷新页面	-4963
▁Health	-4964
基金	-4965
感到	-4966
调整	-4967
ette	-4968
▁FOR	-4969
酒店位于	-4970
▁Apple	-4971
▁ready	-4972
▁license	-4973
可在	-4974
组成	-4975
阳台	-4976
鲜花	-4977
bor	-4978
▁2008	-4979
illage	-4980
瑞士	-4981
身上	-4982
▁half	-4983
▁Autom	-4984
▁conduct	-4985
目录	-4986
▁decl	-4987
▁felt	-4988
▁longer	-4989
▁mother	-4990
▁article	-4991
解释	-4992
▁MC	-4993
free	-4994
time	-4995
▁almost	-4996
▁Address	-4997
▁Vol	-4998
inery	-4999
▁gold	-5000
▁everything	-5001
事件	-5002
▁45	-5003
▁Support	-5004
▁detailed	-5005
关闭	-5006
最终	-5007
OWS	-5008
ios	-5009
rown	-5010
的最新价格	-5011
▁blood	-5012
▁faith	-5013
▁请刷新页面	-5014
▁Person	-5015
仍然	-5016
游览	-5017
避免	-5018
▁games	-5019
DM	-5020
有线	-5021
精神	-5022
lands	-5023
▁window	-5024
分类	-5025
老师	-5026
Com	-5027
HTML	-5028
roups	-5029
▁Less	-5030
▁Phil	-5031
▁road	-5032
ald	-5033
▁pan	-5034
▁Angel	-5035
MB	-5036
▁全	-5037
和平	-5038
based	-5039
▁WIND	-5040
▁District	-5041
▁accepted	-5042
za	-5043
▁soon	-5044
货币	-5045
▁编辑	-5046
▁Dav	-5047
▁Key	-5048
▁abs	-5049
▁Also	-5050
▁coll	-5051
▁components	-5052
称为	-5053
音乐会	-5054
▁ess	-5055
▁street	-5056
▁similar	-5057
▁travelers	-5058
产权	-5059
所在	-5060
top	-5061
和服务	-5062
私人浴室	-5063
OP	-5064
isc	-5065
uis	-5066
urt	-5067
wide	-5068
▁sin	-5069
allery	-5070
关注	-5071
▁虽然	-5072
▁Spa	-5073
▁Western	-5074
或任何	-5075
▁camp	-5076
▁Regist	-5077
就会	-5078
▁force	-5079
▁became	-5080
▁histor	-5081
▁Council	-5082
▁especially	-5083
卫星	-5084
组合	-5085
▁pain	-5086
▁style	-5087
89	-5088
wh	-5089
沙发	-5090
表格	-5091
▁Son	-5092
poses	-5093
▁issues	-5094
▁existing	-5095
中文	-5096
牌生产	-5097
▁cooperation	-5098
的新	-5099
hern	-5100
▁rad	-5101
▁fine	-5102
▁Exper	-5103
▁Select	-5104
▁Manufacturers	-5105
mb	-5106
广州	-5107
时代	-5108
▁obs	-5109
▁Well	-5110
▁联系我们	-5111
▁potential	-5112
▁standards	-5113
▁quickly	-5114
联邦	-5115
▁房间	-5116
▁您同意	-5117
▁Link	-5118
▁WINDOWS	-5119
▁requires	-5120
▁36	-5121
以前	-5122
▁本网站	-5123
▁gave	-5124
▁prep	-5125
▁Social	-5126
▁correct	-5127
另外	-5128
法院	-5129
fault	-5130
▁relig	-5131
再次	-5132
引起	-5133
攻击	-5134
识别	-5135
▁AG	-5136
empt	-5137
▁Fam	-5138
cember	-5139
▁Rights	-5140
▁Security	-5141
▁manufacturing	-5142
验证	-5143
ength	-5144
▁Paul	-5145
▁lost	-5146
▁concerts	-5147
优势	-5148
作出	-5149
指南	-5150
cer	-5151
▁(2)	-5152
体育	-5153
安排	-5154
眼睛	-5155
▁crit	-5156
▁MB	-5157
▁Drive	-5158
▁Games	-5159
▁heard	-5160
inations	-5161
▁Holiday	-5162
▁AR	-5163
地区的	-5164
cast	-5165
▁请刷新页面查看	-5166
ITY	-5167
cluding	-5168
henzhen	-5169
一点	-5170
此类	-5171
ago	-5172
▁Ben	-5173
▁Java	-5174
▁地址	-5175
▁Good	-5176
:0	-5177
▁processes	-5178
发出	-5179
发表	-5180
将会	-5181
▁Equ	-5182
机的	-5183
都会	-5184
ctor	-5185
▁Food	-5186
▁wall	-5187
意义	-5188
颜色	-5189
ITE	-5190
isco	-5191
arget	-5192
▁Studio	-5193
It	-5194
冰箱	-5195
TMs	-5196
▁Ver	-5197
istic	-5198
▁Process	-5199
▁structure	-5200
程度	-5201
订单	-5202
▁mm	-5203
▁draw	-5204
▁seem	-5205
ovember	-5206
▁于	-5207
表现	-5208
▁Tur	-5209
▁Media	-5210
▁automatically	-5211
ev	-5212
list	-5213
▁PDF	-5214
▁Tem	-5215
▁December	-5216
SI	-5217
▁Ter	-5218
▁Life	-5219
▁focus	-5220
装饰	-5221
gal	-5222
ply	-5223
▁sym	-5224
▁Franc	-5225
▁levels	-5226
付出	-5227
吸引	-5228
将在	-5229
文章	-5230
高级	-5231
iber	-5232
ropri	-5233
形成	-5234
策略	-5235
▁Fed	-5236
步行路程	-5237
▁Oper	-5238
▁interact	-5239
inary	-5240
▁disp	-5241
▁水	-5242
▁海	-5243
承认	-5244
方向	-5245
▁Uk	-5246
▁instru	-5247
▁central	-5248
▁prevent	-5249
icate	-5250
▁button	-5251
▁visitors	-5252
▁Description	-5253
▁TripAdvisor	-5254
rm	-5255
的事情	-5256
▁Feb	-5257
▁quote	-5258
▁protected	-5259
64	-5260
因素	-5261
教堂	-5262
anish	-5263
rical	-5264
ington	-5265
▁AB	-5266
alian	-5267
▁feed	-5268
▁jour	-5269
ibrary	-5270
▁analy	-5271
▁charg	-5272
▁stats	-5273
▁thous	-5274
▁transm	-5275
一家	-5276
放松	-5277
高的	-5278
▁建议	-5279
▁uses	-5280
▁takes	-5281
度假村	-5282
▁trust	-5283
▁posted	-5284
充满	-5285
出版	-5286
ida	-5287
▁events	-5288
▁independ	-5289
SP	-5290
TP	-5291
ros	-5292
▁Lis	-5293
Press	-5294
▁Discover	-5295
EW	-5296
▁地	-5297
子的	-5298
最后	-5299
永远	-5300
财产	-5301
ters	-5302
▁won	-5303
▁Code	-5304
▁double	-5305
▁accurate	-5306
▁expected	-5307
▁traditional	-5308
的相关	-5309
ores	-5310
0)	-5311
7)	-5312
CR	-5313
TO	-5314
访问的	-5315
ards	-5316
▁Arch	-5317
▁unit	-5318
▁operators	-5319
▁万	-5320
我就	-5321
监控	-5322
▁Gree	-5323
▁cases	-5324
哪里	-5325
工作人员	-5326
ellow	-5327
▁November	-5328
住在	-5329
游客	-5330
▁insp	-5331
▁fitness	-5332
激光	-5333
联盟	-5334
▁AL	-5335
的客房	-5336
uality	-5337
▁discover	-5338
▁provision	-5339
▁situation	-5340
8)	-5341
Sp	-5342
先进	-5343
构成	-5344
▁33	-5345
▁TR	-5346
▁同时	-5347
▁section	-5348
▁Taiwantrade	-5349
ks	-5350
阿尔	-5351
相关的	-5352
▁500	-5353
▁bad	-5354
atives	-5355
▁black	-5356
▁Public	-5357
▁expert	-5358
传输	-5359
取消	-5360
展览	-5361
▁项目	-5362
的能力	-5363
这样的	-5364
▁USB	-5365
▁Econom	-5366
6)	-5367
十分	-5368
意识	-5369
▁32	-5370
ellig	-5371
ittee	-5372
▁Great	-5373
▁River	-5374
▁added	-5375
▁meters	-5376
促进	-5377
装置	-5378
系统的	-5379
▁obl	-5380
▁reach	-5381
▁Return	-5382
▁attack	-5383
▁concept	-5384
▁bit	-5385
prises	-5386
▁taiwantrade	-5387
▁Apr	-5388
▁提供免费	-5389
€”	-5390
是个	-5391
ita	-5392
utor	-5393
iples	-5394
▁doesn	-5395
▁modify	-5396
多的	-5397
输出	-5398
▁heat	-5399
800	-5400
▁Jo	-5401
lege	-5402
▁anim	-5403
/0	-5404
▁神	-5405
400	-5406
iff	-5407
▁90	-5408
▁2007	-5409
▁deep	-5410
▁anyone	-5411
▁January	-5412
定制	-5413
una	-5414
ellite	-5415
▁adjust	-5416
▁Restaurant	-5417
▁manufactur	-5418
ews	-5419
更多的	-5420
▁Bas	-5421
▁Lake	-5422
▁Sign	-5423
▁March	-5424
▁Account	-5425
▁multiple	-5426
仔细	-5427
工厂	-5428
ACT	-5429
▁可以	-5430
iance	-5431
ribute	-5432
Phone	-5433
▁saying	-5434
▁总	-5435
交流	-5436
类似	-5437
是所有	-5438
comp	-5439
▁dat	-5440
iterr	-5441
ishing	-5442
mar	-5443
▁six	-5444
▁Conn	-5445
▁running	-5446
▁Organization	-5447
ki	-5448
▁Lo	-5449
自动化	-5450
itary	-5451
▁role	-5452
▁block	-5453
仲裁	-5454
接触	-5455
规模	-5456
部件	-5457
▁BC	-5458
gypt	-5459
▁Sat	-5460
▁win	-5461
▁court	-5462
▁arrival	-5463
▁奥	-5464
以后	-5465
▁Hom	-5466
▁base	-5467
▁blog	-5468
ailand	-5469
▁becom	-5470
▁smart	-5471
▁efficiency	-5472
▁^	-5473
利益	-5474
▁Cho	-5475
▁Blue	-5476
Cl	-5477
体系	-5478
▁Santa	-5479
▁coming	-5480
▁brought	-5481
▁message	-5482
cul	-5483
▁31	-5484
的主要	-5485
▁mix	-5486
科技有限公司	-5487
▁›	-5488
▁三	-5489
似乎	-5490
俱乐	-5491
论坛	-5492
▁Each	-5493
▁Located	-5494
EST	-5495
ball	-5496
▁train	-5497
",	-5498
41	-5499
俱乐部	-5500
iter	-5501
▁Jer	-5502
estic	-5503
▁voice	-5504
文本	-5505
的全	-5506
通信	-5507
靠近	-5508
▁Cy	-5509
▁dark	-5510
▁Network	-5511
▁purchase	-5512
▁applicable	-5513
▁established	-5514
rem	-5515
▁Bath	-5516
▁graph	-5517
enities	-5518
▁Ticket	-5519
▁travellers	-5520
EX	-5521
NS	-5522
不过	-5523
阶段	-5524
▁Union	-5525
▁Church	-5526
战争	-5527
▁purposes	-5528
TC	-5529
▁同	-5530
lies	-5531
▁reduce	-5532
▁forward	-5533
信号	-5534
正常	-5535
eed	-5536
▁fix	-5537
idential	-5538
ello	-5539
▁error	-5540
▁valid	-5541
▁expect	-5542
▁remove	-5543
▁confirm	-5544
泰国	-5545
lied	-5546
知识产权	-5547
ticles	-5548
▁Natural	-5549
PL	-5550
以便	-5551
充分	-5552
混合	-5553
ades	-5554
onse	-5555
anger	-5556
▁arising	-5557
DS	-5558
严重	-5559
Web	-5560
▁DL	-5561
▁campsite	-5562
比赛	-5563
帮助您	-5564
ples	-5565
星级酒店	-5566
▁wood	-5567
▁Young	-5568
▁coffee	-5569
▁therefore	-5570
登记	-5571
看看	-5572
And	-5573
▁Him	-5574
▁Mount	-5575
▁Limited	-5576
▁onboard	-5577
▁experiences	-5578
休闲	-5579
病毒	-5580
积极	-5581
WiFi	-5582
▁responsibility	-5583
No	-5584
故事	-5585
聊天	-5586
埃及	-5587
▁ver	-5588
▁波	-5589
家具	-5590
户外	-5591
rim	-5592
▁pick	-5593
▁Store	-5594
▁Suite	-5595
▁Refresh	-5596
▁offered	-5597
▁capacity	-5598
▁technologies	-5599
力量	-5600
ero	-5601
hol	-5602
▁vs	-5603
▁欢迎	-5604
▁fees	-5605
▁Place	-5606
▁contains	-5607
▁websites	-5608
▁administr	-5609
各地	-5610
票价	-5611
信用卡	-5612
ivil	-5613
pped	-5614
国际机场	-5615
亚洲	-5616
地产	-5617
群岛	-5618
ault	-5619
▁Pack	-5620
▁Light	-5621
▁parent	-5622
客运	-5623
▁照片	-5624
▁ded	-5625
▁pray	-5626
女孩	-5627
规划	-5628
ady	-5629
▁Roman	-5630
▁Russian	-5631
平板	-5632
▁der	-5633
▁leave	-5634
▁points	-5635
前台	-5636
解答	-5637
ECH	-5638
▁fram	-5639
outique	-5640
Ex	-5641
▁分钟	-5642
第一次	-5643
▁Brit	-5644
▁Fire	-5645
▁Guangzhou	-5646
到达	-5647
明白	-5648
电源	-5649
▁70	-5650
范围内	-5651
▁wid	-5652
▁shown	-5653
▁Redirect	-5654
▁distance	-5655
▁ord	-5656
▁ways	-5657
大小	-5658
心的	-5659
放在	-5660
统计数据和	-5661
▁steps	-5662
▁Machine	-5663
▁北京	-5664
▁itself	-5665
通讯	-5666
ART	-5667
aches	-5668
▁Egypt	-5669
▁inside	-5670
想到	-5671
比例	-5672
洛哥	-5673
门票	-5674
▁Holy	-5675
▁strength	-5676
▁political	-5677
▁{	-5678
查找	-5679
住宿和	-5680
umber	-5681
▁Answ	-5682
▁Land	-5683
▁taking	-5684
▁advanced	-5685
CO	-5686
▁1:	-5687
▁Bo	-5688
▁NOT	-5689
asons	-5690
▁Govern	-5691
▁provisions	-5692
台湾	-5693
回到	-5694
还可以	-5695
承担任何	-5696
iture	-5697
undred	-5698
▁consist	-5699
▁enterprise	-5700
▁communication	-5701
USTR	-5702
▁提供免费音乐	-5703
统计数据和照片	-5704
▁payment	-5705
产品的	-5706
range	-5707
▁Because	-5708
▁Eastern	-5709
之外	-5710
劳动	-5711
▁在线	-5712
大多数	-5713
▁break	-5714
▁truth	-5715
ky	-5716
人权	-5717
公开	-5718
哪些	-5719
室内	-5720
▁Rob	-5721
▁Thank	-5722
▁这种	-5723
▁behind	-5724
▁culture	-5725
▁highest	-5726
▁©	-5727
协会	-5728
资讯	-5729
nam	-5730
▁vac	-5731
ombia	-5732
▁Arab	-5733
进口	-5734
▁刷新	-5735
▁extra	-5736
▁models	-5737
▁Kitchen	-5738
▁Thailand	-5739
经常	-5740
食物	-5741
vey	-5742
▁Error	-5743
▁failure	-5744
▁establish	-5745
79	-5746
▁Du	-5747
orse	-5748
▁output	-5749
▁routes	-5750
▁testing	-5751
▁efficient	-5752
▁maintenance	-5753
▁什么	-5754
hood	-5755
abase	-5756
index	-5757
▁版本信息	-5758
▁Royal	-5759
▁church	-5760
▁univers	-5761
rastructure	-5762
▁Fil	-5763
▁fall	-5764
▁Korea	-5765
▁links	-5766
▁maximum	-5767
▁morning	-5768
菜单	-5769
antic	-5770
▁Visit	-5771
▁pages	-5772
▁Manufacturer	-5773
AK	-5774
DR	-5775
约翰	-5776
里面	-5777
SQL	-5778
▁不过	-5779
▁micro	-5780
▁Invest	-5781
▁impact	-5782
42	-5783
优质	-5784
ado	-5785
▁3-	-5786
▁Ev	-5787
办公室	-5788
▁制造商	-5789
▁点击这里	-5790
▁persons	-5791
▁documents	-5792
▁让	-5793
以来	-5794
最近	-5795
网站或	-5796
车辆类型	-5797
▁bank	-5798
希腊	-5799
犹太	-5800
irth	-5801
▁Pay	-5802
提供免费	-5803
▁我们引用	-5804
▁Human	-5805
尝试	-5806
您将	-5807
kok	-5808
▁Big	-5809
▁我们引用您	-5810
这是一个承诺	-5811
▁season	-5812
尼斯	-5813
法规	-5814
rug	-5815
▁dining	-5816
只需	-5817
时尚	-5818
站点	-5819
覆盖	-5820
▁cy	-5821
▁jud	-5822
▁pleas	-5823
▁shows	-5824
▁Registrant	-5825
迷你	-5826
rel	-5827
set	-5828
我们的最低	-5829
▁Application	-5830
反应	-5831
VIC	-5832
▁38	-5833
▁emer	-5834
▁belie	-5835
▁groups	-5836
▁按	-5837
宣传	-5838
有人	-5839
在一个	-5840
cony	-5841
cycl	-5842
▁Series	-5843
▁status	-5844
▁medical	-5845
▁appropri	-5846
指定	-5847
探索	-5848
本地	-5849
福音	-5850
ker	-5851
▁网络	-5852
▁step	-5853
▁刷新价格	-5854
▁Copyright	-5855
度的	-5856
领先	-5857
▁耶稣	-5858
网站的	-5859
ston	-5860
▁dise	-5861
▁sold	-5862
arning	-5863
▁Every	-5864
▁highly	-5865
▁memory	-5866
▁INDUSTR	-5867
▁Marketing	-5868
1/	-5869
ttp	-5870
gage	-5871
▁hum	-5872
icies	-5873
iforn	-5874
iation	-5875
▁Conference	-5876
博士	-5877
塑料	-5878
柏林	-5879
▁Hy	-5880
igure	-5881
▁basis	-5882
ecutive	-5883
▁licens	-5884
abilities	-5885
▁去	-5886
致力	-5887
▁Rome	-5888
▁hope	-5889
▁Under	-5890
ception	-5891
DA	-5892
Hz	-5893
具体	-5894
种类	-5895
▁ke	-5896
▁已经	-5897
▁shower	-5898
▁Exporter	-5899
▁effective	-5900
▁interested	-5901
上述	-5902
▁Mor	-5903
ruary	-5904
imming	-5905
▁happy	-5906
住宿和车辆类型	-5907
6,	-5908
cean	-5909
▁pie	-5910
▁cool	-5911
▁hous	-5912
▁broad	-5913
▁green	-5914
彼得	-5915
永久	-5916
asc	-5917
▁hr	-5918
▁task	-5919
▁Associ	-5920
▁parking	-5921
只能	-5922
正式	-5923
气候	-5924
页面不存在	-5925
uj	-5926
作者	-5927
原则	-5928
怎样	-5929
比如	-5930
韩国	-5931
izes	-5932
▁Dem	-5933
▁story	-5934
▁Mediterr	-5935
▁Redirecting	-5936
▁ill	-5937
▁path	-5938
▁touch	-5939
▁leaders	-5940
EB	-5941
参数	-5942
尤其	-5943
opt	-5944
▁sn	-5945
istry	-5946
▁conv	-5947
CA	-5948
OV	-5949
▁Zh	-5950
▁hon	-5951
otion	-5952
ashion	-5953
ifornia	-5954
中海	-5955
交付	-5956
标志	-5957
每天	-5958
▁op	-5959
便宜的	-5960
在这里	-5961
ares	-5962
▁Chat	-5963
住宿和车辆类型是所有	-5964
78	-5965
死亡	-5966
预计	-5967
-10	-5968
ERS	-5969
▁ISO	-5970
▁Lat	-5971
▁ack	-5972
attle	-5973
▁Barcel	-5974
命令	-5975
来越	-5976
▁har	-5977
riger	-5978
▁April	-5979
▁circum	-5980
升级	-5981
▁Two	-5982
▁Educ	-5983
▁Will	-5984
ua	-5985
▁HP	-5986
加拿大	-5987
▁YOU	-5988
▁cat	-5989
▁Tool	-5990
▁Building	-5991
▁opportunity	-5992
▁简	-5993
个月	-5994
频道	-5995
ache	-5996
研发	-5997
oto	-5998
▁Je	-5999
omet	-6000
▁idea	-6001
porate	-6002
▁While	-6003
ography	-6004
ultural	-6005
▁Palace	-6006
▁clients	-6007
cc	-6008
宽敞	-6009
相当	-6010
▁Ba	-6011
▁vers	-6012
▁Board	-6013
▁Since	-6014
lectual	-6015
stances	-6016
▁西	-6017
都有	-6018
在一起	-6019
eline	-6020
▁cities	-6021
▁consult	-6022
对象	-6023
步骤	-6024
法的	-6025
ila	-6026
uff	-6027
▁48	-6028
ocol	-6029
▁Long	-6030
▁Convention	-6031
越来越	-6032
▁exc	-6033
anean	-6034
▁acqu	-6035
▁Mobile	-6036
▁February	-6037
▁Personal	-6038
▁functions	-6039
▁interface	-6040
DP	-6041
和预订	-6042
更多信息	-6043
iling	-6044
▁century	-6045
▁restaurants	-6046
ye	-6047
概念	-6048
附近的	-6049
ww	-6050
纪念	-6051
经理	-6052
▁Di	-6053
▁VM	-6054
▁香港	-6055
king	-6056
使用本网站	-6057
▁helps	-6058
▁decision	-6059
接口	-6060
log	-6061
▁quite	-6062
▁首	-6063
付款	-6064
▁PR	-6065
onto	-6066
party	-6067
where	-6068
▁integrated	-6069
扫描	-6070
来源	-6071
植物	-6072
表明	-6073
ato	-6074
▁TS	-6075
▁WH	-6076
iding	-6077
world	-6078
▁thou	-6079
▁Techn	-6080
sm	-6081
电池	-6082
除了	-6083
bur	-6084
oren	-6085
组件	-6086
ius	-6087
▁Trade	-6088
▁Islands	-6089
▁hundred	-6090
▁reasonable	-6091
心里	-6092
see	-6093
▁34	-6094
ooth	-6095
bourne	-6096
▁wireless	-6097
▁等	-6098
rew	-6099
您同意	-6100
▁End	-6101
▁convenient	-6102
义务	-6103
nal	-6104
5)	-6105
家的	-6106
oria	-6107
rehens	-6108
ulture	-6109
▁David	-6110
▁FileHippo	-6111
向您	-6112
器的	-6113
给你	-6114
保险箱	-6115
很好的	-6116
▁Mark	-6117
acious	-6118
▁Share	-6119
▁target	-6120
争议	-6121
官方	-6122
无需	-6123
ban	-6124
▁reflect	-6125
▁Research	-6126
▁Mediterranean	-6127
LS	-6128
女性	-6129
时的	-6130
齐全	-6131
▁你是	-6132
和视频	-6133
▁sam	-6134
▁diam	-6135
▁metres	-6136
▁considered	-6137
BM	-6138
反映	-6139
至少	-6140
ECT	-6141
roy	-6142
▁Az	-6143
place	-6144
ological	-6145
涉及	-6146
露台	-6147
▁aud	-6148
▁prim	-6149
▁greater	-6150
来了	-6151
核心	-6152
▁MP	-6153
▁帐户	-6154
▁EUR	-6155
▁Que	-6156
idden	-6157
▁slow	-6158
▁Sales	-6159
▁California	-6160
让你	-6161
ANG	-6162
▁Director	-6163
▁operator	-6164
▁我们引用您选择的	-6165
▁installation	-6166
单击	-6167
圣经	-6168
场所	-6169
坐在	-6170
开展	-6171
高速	-6172
img	-6173
rance	-6174
的手	-6175
职业	-6176
Ltd	-6177
▁Mat	-6178
lement	-6179
▁Proper	-6180
▁Category	-6181
▁Technologies	-6182
-3	-6183
▁Hot	-6184
ranch	-6185
▁Cloud	-6186
▁rules	-6187
:4.0.30319.	-6188
oz	-6189
律师	-6190
综合	-6191
▁AV	-6192
▁CR	-6193
▁Las	-6194
▁您可以从	-6195
▁operations	-6196
FS	-6197
个性	-6198
斯科	-6199
是不	-6200
lim	-6201
ancing	-6202
▁proced	-6203
▁update	-6204
mp	-6205
spe	-6206
▁du	-6207
aund	-6208
▁Dec	-6209
▁Nov	-6210
▁joint	-6211
▁collection	-6212
▁_	-6213
动态	-6214
▁技术	-6215
▁DVD	-6216
▁White	-6217
▁exerc	-6218
▁日	-6219
举办	-6220
修复	-6221
拉伯	-6222
数学	-6223
▁Gen	-6224
▁else	-6225
including	-6226
优秀	-6227
模拟	-6228
禁止	-6229
iny	-6230
anda	-6231
▁Yes	-6232
▁Time	-6233
▁Plaza	-6234
▁avoid	-6235
▁benefits	-6236
▁remember	-6237
▁published	-6238
▁Industrial	-6239
会在	-6240
agn	-6241
key	-6242
ula	-6243
我们在	-6244
aste	-6245
▁Set	-6246
▁Ven	-6247
merce	-6248
▁menu	-6249
ording	-6250
▁Answers	-6251
tra	-6252
▁Let	-6253
▁出口商	-6254
▁gives	-6255
▁moved	-6256
波罗	-6257
▁Ul	-6258
有什么	-6259
▁Disc	-6260
▁Help	-6261
▁http	-6262
verter	-6263
承担任何责任	-6264
▁History	-6265
▁physical	-6266
▁separate	-6267
▁Electronics	-6268
医生	-6269
大型	-6270
折扣	-6271
uge	-6272
分钟的	-6273
▁Den	-6274
▁Prem	-6275
▁prob	-6276
▁wrong	-6277
▁Barcelona	-6278
▁destination	-6279
人口	-6280
分销	-6281
吹风	-6282
外部	-6283
细胞	-6284
ias	-6285
另一个	-6286
▁values	-6287
▁Profess	-6288
▁organiz	-6289
▁Customer	-6290
拼写	-6291
ris	-6292
▁Li	-6293
ults	-6294
enced	-6295
tw	-6296
决于	-6297
urs	-6298
▁Mc	-6299
▁0.3	-6300
▁Mart	-6301
▁dead	-6302
▁someone	-6303
▁strateg	-6304
▁actually	-6305
▁amenities	-6306
▁depending	-6307
▁background	-6308
对您	-6309
特色	-6310
▁37	-6311
▁Ap	-6312
取决于	-6313
▁Note	-6314
▁heav	-6315
De	-6316
因您	-6317
清楚	-6318
▁HD	-6319
▁创建	-6320
▁Expl	-6321
▁satis	-6322
即可	-6323
ador	-6324
▁div	-6325
ormal	-6326
ydney	-6327
▁Next	-6328
▁frequ	-6329
▁Quality	-6330
窗口	-6331
ken	-6332
ownt	-6333
承担责任	-6334
arily	-6335
ought	-6336
▁Press	-6337
▁金	-6338
▁Sa	-6339
iant	-6340
usal	-6341
▁rob	-6342
▁issue	-6343
▁Family	-6344
▁beginning	-6345
▁electronic	-6346
5,	-6347
举行	-6348
往返	-6349
收费	-6350
leg	-6351
▁Ma	-6352
▁位于	-6353
site	-6354
▁Mex	-6355
▁labor	-6356
▁bedroom	-6357
▁damages	-6358
▁friendly	-6359
做出	-6360
十字	-6361
客厅	-6362
给我	-6363
▁这样	-6364
▁sem	-6365
▁Motor	-6366
▁Export	-6367
▁rather	-6368
▁weight	-6369
▁essential	-6370
▁liability	-6371
▁白	-6372
▁ye	-6373
▁妈妈	-6374
▁eat	-6375
verse	-6376
▁carry	-6377
▁items	-6378
▁appoint	-6379
▁challeng	-6380
非洲	-6381
edit	-6382
▁sal	-6383
▁basic	-6384
▁trying	-6385
▁themselves	-6386
▁很	-6387
尔夫	-6388
推动	-6389
说的	-6390
贡献	-6391
▁SU	-6392
▁Kel	-6393
ertain	-6394
▁limit	-6395
anguages	-6396
疾病	-6397
utt	-6398
▁客户	-6399
致力于	-6400
▁hear	-6401
ascript	-6402
▁Portug	-6403
▁regular	-6404
▁定	-6405
相应	-6406
▁39	-6407
地中海	-6408
房地产	-6409
odge	-6410
▁Gre	-6411
▁imm	-6412
▁tips	-6413
▁effects	-6414
微波	-6415
有点	-6416
用餐	-6417
▁nor	-6418
field	-6419
▁Cong	-6420
▁Child	-6421
▁Holland	-6422
▁chemical	-6423
▁Institute	-6424
常见	-6425
▁无论	-6426
▁第一	-6427
more	-6428
▁Los	-6429
▁pul	-6430
arter	-6431
ilton	-6432
▁Spanish	-6433
▁release	-6434
▁associated	-6435
愿意	-6436
物质	-6437
理论	-6438
火车站	-6439
确保其	-6440
File	-6441
▁Ann	-6442
▁Fac	-6443
▁以下是	-6444
▁comply	-6445
▁registered	-6446
▁书	-6447
中华	-6448
▁RF	-6449
渡轮航线	-6450
embly	-6451
▁bear	-6452
EF	-6453
现有	-6454
首选	-6455
work	-6456
▁tri	-6457
▁Mult	-6458
▁mouth	-6459
43	-6460
张贴	-6461
明显	-6462
行李	-6463
谷歌	-6464
▁Ha	-6465
inger	-6466
▁round	-6467
▁famous	-6468
▁increasing	-6469
ho	-6470
▁南	-6471
便利	-6472
并从	-6473
或以	-6474
让我	-6475
▁有关	-6476
独特的	-6477
▁impl	-6478
▁Toronto	-6479
▁benefit	-6480
▁institut	-6481
▁appropriate	-6482
专门	-6483
ARR	-6484
▁OS	-6485
▁注册	-6486
▁stock	-6487
▁Bangkok	-6488
76	-6489
mas	-6490
▁SER	-6491
annel	-6492
etary	-6493
▁Start	-6494
▁美	-6495
你是	-6496
ogue	-6497
▁Pet	-6498
▁摩洛哥	-6499
▁simply	-6500
▁measures	-6501
da	-6502
▁系统	-6503
加早餐	-6504
cher	-6505
▁Mer	-6506
▁caused	-6507
▁wonder	-6508
▁external	-6509
▁response	-6510
▁organization	-6511
ui	-6512
以为	-6513
助于	-6514
电机	-6515
han	-6516
▁Sum	-6517
▁请检查	-6518
汽车轮渡	-6519
icrow	-6520
▁shipping	-6521
▁WordPress	-6522
格兰	-6523
里斯	-6524
inn	-6525
obs	-6526
amed	-6527
berg	-6528
▁Adv	-6529
▁Conf	-6530
▁submit	-6531
xy	-6532
参考	-6533
uts	-6534
▁placed	-6535
不再	-6536
在此	-6537
ITH	-6538
▁rele	-6539
▁bound	-6540
▁sense	-6541
▁Casino	-6542
▁cleaning	-6543
▁华	-6544
比亚	-6545
及之前	-6546
shop	-6547
usion	-6548
相关的其他	-6549
▁repro	-6550
▁expand	-6551
Be	-6552
大家	-6553
▁CN	-6554
▁Card	-6555
▁affect	-6556
▁sailing	-6557
▁policies	-6558
图书	-6559
试验	-6560
▁4-	-6561
▁ult	-6562
获得解答	-6563
▁Committee	-6564
文字	-6565
辅导	-6566
防止	-6567
面积	-6568
▁Hall	-6569
▁suff	-6570
▁warm	-6571
▁Engineering	-6572
仅有	-6573
批准	-6574
收入	-6575
爱的	-6576
电动	-6577
过滤	-6578
▁新闻	-6579
ship	-6580
▁300	-6581
▁DAT	-6582
▁Rom	-6583
▁attempt	-6584
▁会	-6585
已被	-6586
突然	-6587
iro	-6588
rix	-6589
▁首页	-6590
rupt	-6591
下列各项	-6592
ously	-6593
▁guide	-6594
▁Flower	-6595
EE	-6596
地板	-6597
ais	-6598
▁AC	-6599
详细信息	-6600
▁nice	-6601
▁learning	-6602
▁advertising	-6603
农业	-6604
十二	-6605
▁Rue	-6606
▁<	-6607
一条	-6608
文档	-6609
氧化	-6610
社交	-6611
▁EL	-6612
▁简单	-6613
条款和	-6614
iana	-6615
▁Alex	-6616
▁Tech	-6617
▁Wash	-6618
人民共和国	-6619
▁alone	-6620
▁answer	-6621
▁getting	-6622
上网	-6623
印刷	-6624
改进	-6625
▁世界	-6626
▁Gra	-6627
▁Ins	-6628
▁Jun	-6629
你将付出	-6630
你的喜爱	-6631
lines	-6632
rency	-6633
▁refund	-6634
oms	-6635
▁LM	-6636
▁中文	-6637
▁员工	-6638
orge	-6639
yond	-6640
▁bur	-6641
▁miss	-6642
▁Brand	-6643
您的个人信息	-6644
▁powerful	-6645
59	-6646
晚上	-6647
▁iP	-6648
▁thy	-6649
▁Cost	-6650
aundry	-6651
cyclop	-6652
▁Baltic	-6653
▁nearby	-6654
▁cutting	-6655
▁machines	-6656
▁suppliers	-6657
不想	-6658
▁家庭	-6659
▁登录	-6660
你们的	-6661
▁Prag	-6662
▁sust	-6663
▁tele	-6664
▁Toilet	-6665
icrowave	-6666
▁Digital	-6667
▁Italian	-6668
▁Systems	-6669
▁discount	-6670
▁completely	-6671
tr	-6672
▁Vict	-6673
ounter	-6674
▁Rooms	-6675
▁与下列各项	-6676
▁Choose	-6677
▁Labels	-6678
相关的其他工作	-6679
▁与下列各项相关的其他工作	-6680
ga	-6681
小的	-6682
酒店在	-6683
aming	-6684
▁roll	-6685
▁Posted	-6686
▁toilet	-6687
侵犯	-6688
umin	-6689
室外游泳池	-6690
▁sleep	-6691
▁Master	-6692
▁reliable	-6693
gl	-6694
一天	-6695
变更	-6696
▁Sy	-6697
▁metal	-6698
▁Report	-6699
▁Blogger	-6700
▁attention	-6701
当然	-6702
想法	-6703
道路	-6704
ruit	-6705
▁Non	-6706
order	-6707
▁award	-6708
▁Father	-6709
▁population	-6710
56	-6711
▁正	-6712
你会	-6713
在这	-6714
妇女	-6715
aves	-6716
▁Gal	-6717
▁Tri	-6718
▁portion	-6719
▁writing	-6720
▁accommodations	-6721
旨在	-6722
有所	-6723
▁除了	-6724
onia	-6725
▁(201	-6726
▁Sydney	-6727
Do	-6728
附加	-6729
199	-6730
dam	-6731
▁BE	-6732
▁这里	-6733
▁Luxury	-6734
▁approach	-6735
▁Hard	-6736
▁incor	-6737
▁sensor	-6738
An	-6739
办法	-6740
危险	-6741
现实	-6742
资金	-6743
▁3,	-6744
真正的	-6745
▁Forum	-6746
▁influ	-6747
▁markets	-6748
▁Shenzhen	-6749
▁connected	-6750
▁innovation	-6751
ded	-6752
band	-6753
▁motor	-6754
▁Reviews	-6755
▁Boutique	-6756
▁practice	-6757
▁regarding	-6758
▁resolution	-6759
pet	-6760
▁API	-6761
▁cast	-6762
▁info	-6763
▁Point	-6764
aturing	-6765
▁hostels	-6766
▁partner	-6767
▁environmental	-6768
IB	-6769
Pl	-6770
号码	-6771
房子	-6772
而言	-6773
pid	-6774
▁pow	-6775
child	-6776
▁patent	-6777
rehensive	-6778
▁Electric	-6779
良好的	-6780
▁Chang	-6781
▁length	-6782
到的	-6783
dry	-6784
▁当然	-6785
oway	-6786
我们可以	-6787
▁reached	-6788
▁category	-6789
cyclopedia	-6790
住宿和车辆类型是所有你将付出	-6791
审查	-6792
排名	-6793
的一切	-6794
page	-6795
▁tea	-6796
▁Collect	-6797
▁virtual	-6798
▁advantage	-6799
▁Javascript	-6800
yo	-6801
而是	-6802
障碍	-6803
▁Ho	-6804
▁附近	-6805
受欢迎	-6806
iers	-6807
itial	-6808
▁aware	-6809
rigerator	-6810
▁programs	-6811
东欧	-6812
好了	-6813
轴承	-6814
▁支持	-6815
▁holiday	-6816
▁methods	-6817
4-	-6818
▁二	-6819
类别	-6820
alu	-6821
idi	-6822
▁企业	-6823
坐落于	-6824
▁0.0	-6825
拼写正确	-6826
▁mode	-6827
也会	-6828
单元	-6829
面对	-6830
▁OEM	-6831
▁cry	-6832
▁Jack	-6833
▁whom	-6834
▁wife	-6835
▁wish	-6836
▁Double	-6837
▁Estate	-6838
▁scient	-6839
▁percent	-6840
▁increased	-6841
LV	-6842
po	-6843
▁公	-6844
▁发	-6845
▁已	-6846
上了	-6847
LED	-6848
▁100%	-6849
▁Send	-6850
1-	-6851
编程	-6852
chure	-6853
▁Many	-6854
▁fuck	-6855
▁Stock	-6856
▁请检查以下	-6857
▁planning	-6858
58	-6859
人在	-6860
隐藏	-6861
▁快速	-6862
▁10.	-6863
▁COR	-6864
▁vir	-6865
▁并确保其	-6866
acific	-6867
▁square	-6868
▁towards	-6869
▁并确保其拼写正确	-6870
fol	-6871
▁mis	-6872
arest	-6873
▁filter	-6874
condition	-6875
▁Francisco	-6876
PN	-6877
和北	-6878
巴黎	-6879
风景	-6880
AND	-6881
anner	-6882
▁Mess	-6883
▁unless	-6884
▁usually	-6885
▁According	-6886
▁拉	-6887
将其	-6888
过来	-6889
进行了	-6890
iled	-6891
resp	-6892
bu	-6893
ja	-6894
让您	-6895
船上的	-6896
oven	-6897
inner	-6898
▁thereof	-6899
▁insurance	-6900
MC	-6901
PT	-6902
中间	-6903
消费者	-6904
美丽的	-6905
itiz	-6906
attery	-6907
▁manage	-6908
的心	-6909
600	-6910
▁ge	-6911
微波炉	-6912
第一个	-6913
adel	-6914
▁西班牙	-6915
▁Year	-6916
▁Bible	-6917
▁原	-6918
▁外	-6919
塞尔	-6920
塞罗	-6921
接收	-6922
iced	-6923
ferry	-6924
▁Science	-6925
▁伊	-6926
▁斯	-6927
▁法	-6928
可是	-6929
col	-6930
nown	-6931
▁allowed	-6932
▁transact	-6933
快乐	-6934
总统	-6935
衣服	-6936
OUR	-6937
▁显示	-6938
bers	-6939
▁Les	-6940
▁pen	-6941
▁comments	-6942
▁科	-6943
REE	-6944
abled	-6945
▁trip	-6946
▁跳	-6947
itude	-6948
▁ball	-6949
▁lives	-6950
▁Lesson	-6951
▁camera	-6952
▁Restaurants	-6953
▁engineering	-6954
.)	-6955
全国	-6956
带有	-6957
指导	-6958
国家的	-6959
网站上	-6960
iable	-6961
▁final	-6962
▁announ	-6963
▁served	-6964
▁acknowledge	-6965
▁infrastructure	-6966
合金	-6967
▁audio	-6968
UM	-6969
hi	-6970
hab	-6971
可持续	-6972
vide	-6973
▁subm	-6974
▁iPhone	-6975
▁Budapest	-6976
▁Christian	-6977
你要	-6978
大量	-6979
女儿	-6980
▁活动	-6981
▁Lou	-6982
▁boy	-6983
▁ear	-6984
oring	-6985
osing	-6986
porary	-6987
▁Optoway	-6988
博客	-6989
满意	-6990
▁第三	-6991
版本的	-6992
葡萄酒	-6993
▁0.5	-6994
▁corn	-6995
author	-6996
▁master	-6997
▁serious	-6998
▁everyone	-6999
▁spacious	-7000
ef	-7001
▁克	-7002
ils	-7003
▁5-	-7004
▁CA	-7005
的影响	-7006
well	-7007
istan	-7008
▁defin	-7009
▁encyclopedia	-7010
▁东	-7011
是由	-7012
远程	-7013
高效	-7014
▁NY	-7015
▁视频	-7016
▁Tag	-7017
▁aim	-7018
jiang	-7019
▁beat	-7020
▁Smart	-7021
▁Guarantee	-7022
事务	-7023
德里	-7024
App	-7025
▁gen	-7026
▁qual	-7027
▁Tutor	-7028
▁shared	-7029
物理	-7030
芬兰	-7031
吹风机	-7032
新加坡	-7033
▁paid	-7034
▁SERVIC	-7035
▁affiliates	-7036
82	-7037
▁月	-7038
▁还	-7039
姓名	-7040
物流	-7041
黄金	-7042
驱动器	-7043
▁Make	-7044
▁Porn	-7045
▁breat	-7046
▁stood	-7047
▁Cookie	-7048
使得	-7049
储存	-7050
我是	-7051
技能	-7052
航班	-7053
节省	-7054
80/	-7055
和乘客	-7056
类型的	-7057
▁film	-7058
ducing	-7059
▁middle	-7060
imentary	-7061
▁economy	-7062
SA	-7063
协助	-7064
合适	-7065
时刻	-7066
管辖	-7067
绿色	-7068
肯定	-7069
▁4,	-7070
Cont	-7071
▁chain	-7072
▁decor	-7073
▁degree	-7074
▁origin	-7075
FileHippo	-7076
▁Residence	-7077
CP	-7078
主的	-7079
退款	-7080
高兴	-7081
iah	-7082
▁01	-7083
▁厨房	-7084
▁Equipment	-7085
▁Melbourne	-7086
▁Enterprise	-7087
ba	-7088
参观	-7089
威胁	-7090
表达	-7091
ipe	-7092
nel	-7093
oda	-7094
▁Ol	-7095
▁SD	-7096
▁国际	-7097
卫生间	-7098
数据库	-7099
▁thus	-7100
▁suite	-7101
▁channels	-7102
▁independent	-7103
▁regulations	-7104
一致	-7105
签证	-7106
▁dyn	-7107
▁led	-7108
▁cold	-7109
▁Peter	-7110
一间	-7111
撤销	-7112
站在	-7113
丰富的	-7114
with	-7115
▁feet	-7116
▁Prague	-7117
▁ferryto	-7118
▁Overview	-7119
▁settings	-7120
▁Solutions	-7121
▁worldwide	-7122
卓越	-7123
▁KB	-7124
▁Ur	-7125
onst	-7126
▁0.4	-7127
▁Ros	-7128
▁lif	-7129
Script	-7130
▁trend	-7131
▁recent	-7132
▁situated	-7133
顶级	-7134
▁--	-7135
▁PL	-7136
及其他	-7137
▁Men	-7138
关联公司	-7139
ounge	-7140
▁active	-7141
▁setting	-7142
医院	-7143
说话	-7144
look	-7145
ying	-7146
▁Mary	-7147
▁Lines	-7148
▁adapt	-7149
▁subst	-7150
▁Devices	-7151
加强	-7152
ISE	-7153
uit	-7154
▁或者	-7155
而不是	-7156
hemat	-7157
▁Hand	-7158
▁Community	-7159
▁米	-7160
分配	-7161
密钥	-7162
摄像	-7163
方米	-7164
毛巾	-7165
实验室	-7166
2017	-7167
世界上最大的	-7168
▁measurement	-7169
地铁	-7170
订阅	-7171
▁2:	-7172
▁广告	-7173
itzer	-7174
▁Dong	-7175
▁Form	-7176
▁flor	-7177
▁society	-7178
▁Colombia	-7179
众多	-7180
后来	-7181
观看	-7182
驾驶	-7183
高度	-7184
xim	-7185
▁随着	-7186
idel	-7187
▁Nav	-7188
▁lift	-7189
▁Berlin	-7190
▁useful	-7191
);	-7192
回复	-7193
地球	-7194
海岸	-7195
透过	-7196
▁Tok	-7197
uracy	-7198
▁Hill	-7199
▁WARR	-7200
▁Material	-7201
57	-7202
破坏	-7203
硬盘	-7204
▁小时	-7205
2000	-7206
tage	-7207
▁Box	-7208
hotel	-7209
othes	-7210
ansion	-7211
▁units	-7212
饭店	-7213
▁2*	-7214
的方法	-7215
▁Vir	-7216
▁Whe	-7217
apers	-7218
▁index	-7219
▁comput	-7220
LI	-7221
人数	-7222
克斯	-7223
居民	-7224
根本	-7225
花店	-7226
零售	-7227
▁da	-7228
▁Miss	-7229
lation	-7230
▁deposit	-7231
GB	-7232
做的	-7233
全面	-7234
250	-7235
:80/	-7236
▁spend	-7237
▁heaven	-7238
▁Therefore	-7239
▁来	-7240
教授	-7241
未能	-7242
适当	-7243
有助于	-7244
自行车	-7245
alle	-7246
▁Budd	-7247
▁Head	-7248
▁Iron	-7249
▁Only	-7250
▁capt	-7251
▁Music	-7252
▁exact	-7253
Windows	-7254
▁dedicated	-7255
ns	-7256
办理	-7257
热水	-7258
视为	-7259
off	-7260
一个人	-7261
erved	-7262
▁Wall	-7263
▁Member	-7264
▁Parking	-7265
▁suitable	-7266
佛罗	-7267
每晚	-7268
清单	-7269
一系列	-7270
▁hyd	-7271
aling	-7272
nergy	-7273
razil	-7274
product	-7275
KS	-7276
区的	-7277
增强	-7278
年来	-7279
总是	-7280
坐落在	-7281
并没有	-7282
是否有	-7283
▁scre	-7284
▁Asian	-7285
▁experts	-7286
妻子	-7287
我也	-7288
条目	-7289
的试	-7290
▁Ak	-7291
uang	-7292
波罗的海	-7293
▁WARRANT	-7294
▁cheapest	-7295
▁intellig	-7296
反对	-7297
物品	-7298
葡萄牙	-7299
▁bud	-7300
▁architecture	-7301
▁circumstances	-7302
住了	-7303
特点	-7304
代理人	-7305
控制器	-7306
的安全	-7307
arian	-7308
osure	-7309
▁TECH	-7310
▁Court	-7311
▁MySQL	-7312
▁enable	-7313
▁listed	-7314
▁packaging	-7315
62	-7316
经历	-7317
iao	-7318
edom	-7319
▁Kar	-7320
▁gates	-7321
▁client	-7322
▁reference	-7323
iy	-7324
同样	-7325
团体	-7326
港口	-7327
长的	-7328
请求的	-7329
过的问题	-7330
plete	-7331
▁brother	-7332
▁collabor	-7333
▁elements	-7334
▁reserves	-7335
▁Mem	-7336
▁fold	-7337
▁1,200	-7338
levision	-7339
▁reasons	-7340
▁contribut	-7341
▁apartments	-7342
LY	-7343
sa	-7344
界面	-7345
锈钢	-7346
cing	-7347
▁wat	-7348
更多内容	-7349
▁Look	-7350
othing	-7351
▁delet	-7352
ificate	-7353
▁During	-7354
▁agents	-7355
▁Returns	-7356
▁innovative	-7357
▁enterprises	-7358
AF	-7359
保障	-7360
患者	-7361
我要	-7362
连续	-7363
POR	-7364
Well	-7365
ista	-7366
▁Tim	-7367
▁input	-7368
▁Conditions	-7369
▁monitoring	-7370
▁reservations	-7371
yr	-7372
兼容	-7373
欣赏	-7374
INE	-7375
▁Veg	-7376
iquid	-7377
uisine	-7378
▁quiet	-7379
▁hostel	-7380
▁science	-7381
72	-7382
oe	-7383
他人	-7384
元素	-7385
压缩	-7386
国的	-7387
年代	-7388
快的	-7389
观察	-7390
azing	-7391
eeping	-7392
▁changed	-7393
How	-7394
unk	-7395
▁版权	-7396
的技术	-7397
▁(3)	-7398
▁Atl	-7399
▁fair	-7400
▁Local	-7401
▁intel	-7402
fficient	-7403
▁cultural	-7404
不起	-7405
互动	-7406
交换	-7407
-15	-7408
COM	-7409
yth	-7410
▁Rd	-7411
登录或	-7412
的设计	-7413
Home	-7414
IMIT	-7415
odes	-7416
rian	-7417
▁SQL	-7418
▁flu	-7419
▁core	-7420
▁export	-7421
▁articles	-7422
不错	-7423
值得	-7424
屁股	-7425
应对	-7426
西哥	-7427
ael	-7428
▁Cz	-7429
的基础	-7430
icip	-7431
link	-7432
ategy	-7433
ettle	-7434
▁Flat	-7435
usalem	-7436
▁upload	-7437
▁strategy	-7438
▁automatic	-7439
使其	-7440
寻求	-7441
资本	-7442
enty	-7443
▁Tod	-7444
▁prem	-7445
▁behav	-7446
▁Secret	-7447
▁understanding	-7448
严格	-7449
收藏	-7450
证书	-7451
货物	-7452
▁ir	-7453
▁Def	-7454
▁为什么	-7455
▁2000	-7456
▁fear	-7457
▁domestic	-7458
约束	-7459
贝尔	-7460
▁纽约	-7461
▁firm	-7462
struct	-7463
▁arbit	-7464
▁Government	-7465
一位	-7466
走了	-7467
趋势	-7468
你找到	-7469
▁Str	-7470
▁Who	-7471
▁gate	-7472
▁个人资料	-7473
▁assign	-7474
▁balcony	-7475
▁sustain	-7476
▁internal	-7477
▁Suppliers	-7478
▁guarantee	-7479
,”	-7480
bol	-7481
和北非	-7482
墨西哥	-7483
ancy	-7484
▁Cams	-7485
▁Frank	-7486
▁Graph	-7487
▁fight	-7488
▁Behance	-7489
63	-7490
So	-7491
▁所	-7492
win	-7493
obby	-7494
oper	-7495
▁Pen	-7496
▁Near	-7497
▁INTER	-7498
▁stress	-7499
了这	-7500
年前	-7501
▁Current	-7502
▁Nations	-7503
▁growing	-7504
他说	-7505
住宅	-7506
出去	-7507
的主	-7508
View	-7509
aign	-7510
有线电视	-7511
能够获得	-7512
▁Circ	-7513
▁threat	-7514
▁College	-7515
▁Jerusalem	-7516
绝对	-7517
cam	-7518
双人间	-7519
etail	-7520
point	-7521
▁late	-7522
▁write	-7523
osition	-7524
▁bright	-7525
▁format	-7526
▁progress	-7527
▁generation	-7528
71	-7529
AW	-7530
FR	-7531
他在	-7532
处于	-7533
▁文件	-7534
▁Ent	-7535
▁Lin	-7536
isation	-7537
▁Mexico	-7538
ifications	-7539
▁developing	-7540
▁Association	-7541
BA	-7542
▁前	-7543
土地	-7544
文龙	-7545
父母	-7546
相比	-7547
硬件	-7548
sten	-7549
type	-7550
ilies	-7551
▁Shop	-7552
▁neigh	-7553
ainless	-7554
▁Dining	-7555
▁beyond	-7556
▁Details	-7557
▁pictures	-7558
▁providers	-7559
冲突	-7560
当时	-7561
欧盟	-7562
oen	-7563
▁Ke	-7564
▁寻找	-7565
的重要	-7566
▁hom	-7567
cious	-7568
▁pump	-7569
▁soft	-7570
▁已经结束	-7571
▁fresh	-7572
standing	-7573
▁destroy	-7574
▁爱	-7575
你在	-7576
假日	-7577
动力	-7578
宣布	-7579
认可	-7580
音频	-7581
ucle	-7582
▁Love	-7583
▁trou	-7584
和汽车轮渡	-7585
▁ideas	-7586
▁indic	-7587
▁names	-7588
▁Education	-7589
▁好	-7590
制定	-7591
发挥	-7592
我不	-7593
故障	-7594
▁列表	-7595
This	-7596
▁Table	-7597
▁param	-7598
itzerland	-7599
▁satellite	-7600
▁terminate	-7601
8,	-7602
EV	-7603
都在	-7604
emn	-7605
▁Gr	-7606
▁尽管	-7607
▁日本	-7608
eria	-7609
tics	-7610
ienna	-7611
▁Fort	-7612
条款和条件	-7613
owntown	-7614
▁Bridge	-7615
▁conflic	-7616
▁分	-7617
圣灵	-7618
澳门	-7619
ued	-7620
pack	-7621
▁Number	-7622
▁currently	-7623
▁installed	-7624
备份	-7625
框架	-7626
细节	-7627
规范	-7628
强大的	-7629
的要求	-7630
2013	-7631
aled	-7632
▁Mom	-7633
1,200	-7634
encies	-7635
▁skills	-7636
客运和汽车轮渡	-7637
▁thinking	-7638
▁opportunities	-7639
BD	-7640
困难	-7641
更好	-7642
财务	-7643
与我们	-7644
任何人	-7645
▁Nor	-7646
aughter	-7647
AI	-7648
Un	-7649
实业	-7650
担保	-7651
面包	-7652
▁GB	-7653
▁德国	-7654
2014	-7655
otive	-7656
▁Safety	-7657
▁Popular	-7658
▁messages	-7659
▁comprehensive	-7660
▁communications	-7661
▁×	-7662
▁家	-7663
双方	-7664
天然	-7665
是最	-7666
确实	-7667
转让	-7668
▁Pu	-7669
完整的	-7670
term	-7671
ander	-7672
▁tried	-7673
▁manner	-7674
▁significant	-7675
及时	-7676
nes	-7677
▁他的	-7678
旅客们	-7679
▁CSS	-7680
▁Ham	-7681
▁mid	-7682
辅导老师	-7683
▁Rock	-7684
▁hardware	-7685
▁specified	-7686
▁reservation	-7687
NA	-7688
标识	-7689
▁Ob	-7690
1303	-7691
enge	-7692
▁cock	-7693
▁rich	-7694
inding	-7695
▁therm	-7696
▁owners	-7697
ML	-7698
ih	-7699
保密	-7700
预测	-7701
损失或	-7702
的理想	-7703
▁thee	-7704
▁Czech	-7705
▁Tower	-7706
▁forth	-7707
▁lines	-7708
▁opening	-7709
▁accuracy	-7710
GH	-7711
听课	-7712
维亚	-7713
西兰	-7714
那样	-7715
▁bi	-7716
▁来自	-7717
▁重要	-7718
omas	-7719
▁LCD	-7720
▁Tre	-7721
▁den	-7722
▁esc	-7723
▁Trad	-7724
▁util	-7725
▁我们提供	-7726
▁LIMIT	-7727
▁gradu	-7728
▁spread	-7729
▁session	-7730
足够	-7731
转移	-7732
适应	-7733
顾客	-7734
▁电子	-7735
▁Even	-7736
▁fuel	-7737
▁soul	-7738
▁returned	-7739
1:	-7740
特性	-7741
▁空调	-7742
oriz	-7743
▁Arts	-7744
▁Plus	-7745
▁Model	-7746
ailable	-7747
▁remote	-7748
▁Country	-7749
▁Hostelworld	-7750
▁成	-7751
除非	-7752
rak	-7753
更好的	-7754
领域的	-7755
▁WITH	-7756
▁encou	-7757
▁entered	-7758
▁organizations	-7759
拉格	-7760
构建	-7761
耶路	-7762
说道	-7763
配件	-7764
ste	-7765
dryer	-7766
overs	-7767
▁Flor	-7768
▁Once	-7769
▁照片和视频	-7770
▁Academ	-7771
▁aspect	-7772
撒冷	-7773
洗浴	-7774
迅速	-7775
▁机场	-7776
式酒店	-7777
正确的	-7778
quir	-7779
▁Buy	-7780
▁Tele	-7781
▁likely	-7782
▁database	-7783
▁consumption	-7784
▁recommendations	-7785
SE	-7786
▁两	-7787
一张	-7788
属性	-7789
钻石	-7790
▁00	-7791
elle	-7792
的试听课	-7793
▁有辅导老师	-7794
▁island	-7795
▁produce	-7796
▁traffic	-7797
▁有辅导老师的试听课	-7798
图形	-7799
民主	-7800
EMF	-7801
rue	-7802
▁Mus	-7803
▁Peace	-7804
▁identify	-7805
▁visiting	-7806
▁resistance	-7807
▁successful	-7808
功率	-7809
期的	-7810
流量	-7811
证据	-7812
road	-7813
anent	-7814
▁Color	-7815
▁numer	-7816
cretion	-7817
▁letter	-7818
▁welcome	-7819
▁integration	-7820
▁被	-7821
我想	-7822
指示	-7823
用来	-7824
▁hy	-7825
▁感谢	-7826
▁upg	-7827
ateur	-7828
onent	-7829
print	-7830
▁Viet	-7831
▁Vegas	-7832
▁的更多内容	-7833
▁promote	-7834
▁intellectual	-7835
▁贴	-7836
实践	-7837
损坏	-7838
训练	-7839
部署	-7840
▁之间	-7841
▁tow	-7842
欧洲主要	-7843
耶路撒冷	-7844
▁Care	-7845
▁evalu	-7846
▁Advert	-7847
▁execut	-7848
▁plastic	-7849
▁swimming	-7850
▁described	-7851
AX	-7852
RF	-7853
▁红	-7854
家人	-7855
床上	-7856
ATE	-7857
理位置	-7858
▁Rec	-7859
分销网络	-7860
▁Auto	-7861
▁Brazil	-7862
▁assist	-7863
▁Switzerland	-7864
7,	-7865
IK	-7866
Oh	-7867
制品	-7868
在我	-7869
披露	-7870
ava	-7871
then	-7872
ardens	-7873
▁Earth	-7874
▁remov	-7875
04	-7876
气体	-7877
环保	-7878
▁目前	-7879
和免费	-7880
iques	-7881
rowse	-7882
▁shop	-7883
▁请登录或	-7884
▁defend	-7885
▁climate	-7886
▁military	-7887
▁accessible	-7888
▁difference	-7889
▁combination	-7890
84	-7891
▁苏	-7892
响应	-7893
指数	-7894
标记	-7895
部的	-7896
长度	-7897
-12	-7898
▁BY	-7899
roll	-7900
aught	-7901
itage	-7902
▁Hair	-7903
▁blue	-7904
▁laser	-7905
▁Author	-7906
▁Hilton	-7907
▁Second	-7908
▁请登录或创建	-7909
▁Property	-7910
有趣	-7911
asts	-7912
▁Jin	-7913
操作系统	-7914
▁dress	-7915
▁stage	-7916
▁kettle	-7917
▁involved	-7918
▁permission	-7919
1]	-7920
BC	-7921
PW	-7922
▁‘	-7923
如下	-7924
帐号	-7925
mes	-7926
▁其中	-7927
特别是	-7928
mosp	-7929
rote	-7930
▁Jud	-7931
最便宜的	-7932
EMENT	-7933
ester	-7934
ospital	-7935
▁consequ	-7936
▁decided	-7937
▁default	-7938
▁meaning	-7939
▁trading	-7940
▁Department	-7941
▁内	-7942
▁快	-7943
切割	-7944
标题	-7945
试图	-7946
▁最后	-7947
▁birth	-7948
▁County	-7949
▁enforce	-7950
▁furniture	-7951
机关	-7952
民族	-7953
监测	-7954
IME	-7955
JPG	-7956
oli	-7957
uket	-7958
洗浴用品	-7959
▁Casa	-7960
▁serve	-7961
▁breach	-7962
▁disease	-7963
▁instead	-7964
▁presence	-7965
▁released	-7966
▁languages	-7967
普通	-7968
移民	-7969
集中	-7970
▁5:	-7971
的原因	-7972
▁Fun	-7973
▁stra	-7974
▁player	-7975
▁direction	-7976
▁Exhibition	-7977
):	-7978
TE	-7979
相对	-7980
的文件	-7981
▁Div	-7982
▁whose	-7983
波罗的海和北非	-7984
AQ	-7985
▁精	-7986
信仰	-7987
公约	-7988
办商	-7989
固定	-7990
球场	-7991
的水	-7992
Fun	-7993
aka	-7994
cow	-7995
塞罗那	-7996
▁efforts	-7997
▁package	-7998
▁reports	-7999
世界上最大的在线	-8000
▁recovery	-8001
▁surroundings	-8002
伤害	-8003
具备	-8004
沟通	-8005
相机	-8006
给予	-8007
维修	-8008
900	-8009
NOL	-8010
▁Cr	-8011
最新的	-8012
▁Swed	-8013
▁Angeles	-8014
▁Through	-8015
▁Twitter	-8016
PU	-8017
都不	-8018
▁55	-8019
▁occas	-8020
cookies	-8021
▁cuisine	-8022
▁industries	-8023
剧院	-8024
码头	-8025
ige	-8026
▁42	-8027
▁最低	-8028
▁spa	-8029
ulated	-8030
▁saved	-8031
▁prepar	-8032
▁Fairchild	-8033
BR	-8034
SL	-8035
也有	-8036
外国	-8037
或在	-8038
房内	-8039
的神	-8040
间接	-8041
▁Lu	-8042
营办商	-8043
ects	-8044
▁Girl	-8045
▁Mich	-8046
▁sort	-8047
▁网站设计	-8048
ropical	-8049
▁initial	-8050
我说	-8051
或是	-8052
等级	-8053
▁Kh	-8054
▁er	-8055
或服务	-8056
▁Bou	-8057
burgh	-8058
▁dial	-8059
▁recre	-8060
▁summer	-8061
▁Exporters	-8062
▁attractions	-8063
▁suggestions	-8064
OK	-8065
当事	-8066
jan	-8067
▁这家	-8068
深圳市	-8069
▁俄罗斯	-8070
健身中心	-8071
▁tree	-8072
▁wine	-8073
friend	-8074
▁altern	-8075
▁British	-8076
▁journey	-8077
▁provider	-8078
▁continued	-8079
▁inclusive	-8080
Go	-8081
即时	-8082
宾馆	-8083
通道	-8084
默认	-8085
如果你	-8086
设计的	-8087
iring	-8088
▁Zeal	-8089
▁简单描述	-8090
respond	-8091
▁moving	-8092
▁Executive	-8093
▁discretion	-8094
主席	-8095
从事	-8096
无效	-8097
本身	-8098
青年	-8099
规定的	-8100
bass	-8101
▁Lic	-8102
预订超过	-8103
▁rail	-8104
▁enables	-8105
▁exercise	-8106
世界上最大的在线船票	-8107
wa	-8108
佩斯	-8109
利润	-8110
思想	-8111
mon	-8112
▁安全	-8113
▁汽车	-8114
ifts	-8115
rage	-8116
▁Gar	-8117
▁rub	-8118
chang	-8119
▁2005	-8120
▁定牌生产	-8121
▁shops	-8122
default	-8123
▁Vienna	-8124
▁myself	-8125
▁factors	-8126
▁movement	-8127
件事	-8128
平面	-8129
jak	-8130
并同意	-8131
▁Tel	-8132
酒店距离	-8133
front	-8134
▁Step	-8135
渡轮营办商	-8136
orence	-8137
▁Apart	-8138
▁Which	-8139
▁rapid	-8140
▁former	-8141
▁propos	-8142
▁terrace	-8143
欧洲主要渡轮营办商	-8144
不对	-8145
电梯	-8146
▁罗马	-8147
2012	-8148
inity	-8149
▁chat	-8150
▁Manual	-8151
▁switch	-8152
formance	-8153
色情	-8154
访客	-8155
跟踪	-8156
路线	-8157
饮料	-8158
ova	-8159
▁无线	-8160
▁Pool	-8161
▁Prom	-8162
▁Cross	-8163
▁Sweet	-8164
▁的工作人员	-8165
▁cancer	-8166
▁的工作人员及之前	-8167
QU	-8168
以外	-8169
变成	-8170
各个	-8171
档案	-8172
经典	-8173
规格	-8174
评价	-8175
项目的	-8176
1000	-8177
▁和出口商	-8178
▁civil	-8179
▁Modern	-8180
▁Source	-8181
▁seemed	-8182
▁mention	-8183
▁flexible	-8184
▁的工作人员及之前的客人	-8185
分别	-8186
到底	-8187
宇宙	-8188
接入	-8189
▁(@	-8190
▁DC	-8191
▁或其	-8192
enses	-8193
ourses	-8194
▁Energy	-8195
▁budget	-8196
▁floors	-8197
▁luxury	-8198
▁Gallery	-8199
▁Zealand	-8200
▁configuration	-8201
no	-8202
▁德	-8203
婴儿	-8204
平衡	-8205
捷克	-8206
整体	-8207
的东西	-8208
著名的	-8209
▁die	-8210
▁rat	-8211
网站或资源	-8212
ervice	-8213
▁的工作人员及之前的客人获得解答	-8214
96	-8215
TI	-8216
▁开	-8217
丢失	-8218
祷告	-8219
isa	-8220
▁400	-8221
▁commit	-8222
▁picture	-8223
▁followed	-8224
02	-8225
He	-8226
▁带	-8227
击败	-8228
餐馆	-8229
▁我想	-8230
▁英语	-8231
太阳能	-8232
folio	-8233
▁Print	-8234
▁Today	-8235
▁worth	-8236
▁extrem	-8237
▁sports	-8238
▁Connect	-8239
▁corporate	-8240
fe	-8241
▁保	-8242
▁另外	-8243
▁访问	-8244
曾提出	-8245
都可以	-8246
▁arm	-8247
▁fish	-8248
▁forg	-8249
▁mill	-8250
▁spot	-8251
▁Times	-8252
▁minute	-8253
▁comment	-8254
▁determine	-8255
按摩	-8256
营地	-8257
lor	-8258
▁电话	-8259
的国家	-8260
▁Chi	-8261
▁und	-8262
NOLOG	-8263
和其他旅客	-8264
的相关回答	-8265
旅客们曾提出	-8266
etables	-8267
▁员工和其他旅客	-8268
▁以下是旅客们曾提出	-8269
▁员工和其他旅客的相关回答	-8270
▁以下是旅客们曾提出过的问题	-8271
大门	-8272
年度	-8273
替代	-8274
着她	-8275
革命	-8276
Con	-8277
▁应用	-8278
简单的	-8279
▁dim	-8280
▁Take	-8281
▁icon	-8282
▁owner	-8283
ferryto	-8284
DU	-8285
ae	-8286
干净	-8287
年龄	-8288
评分	-8289
oes	-8290
是一家	-8291
anzi	-8292
▁cru	-8293
▁closed	-8294
▁Pacific	-8295
▁overall	-8296
▁Technical	-8297
▁entertain	-8298
53	-8299
制度	-8300
尔斯	-8301
很好	-8302
必填	-8303
FOR	-8304
也没有	-8305
appy	-8306
rack	-8307
riage	-8308
▁Rail	-8309
▁somet	-8310
▁Further	-8311
▁teacher	-8312
▁restrict	-8313
▁Additional	-8314
▁看	-8315
事业	-8316
你就	-8317
零件	-8318
飞机	-8319
ika	-8320
isd	-8321
ocr	-8322
▁Ca	-8323
▁当您	-8324
▁用于	-8325
▁Caf	-8326
▁Milan	-8327
▁multi	-8328
▁atmosp	-8329
▁volume	-8330
ervation	-8331
▁impress	-8332
▁brochure	-8333
▁administrative	-8334
▁威	-8335
克兰	-8336
公民	-8337
好像	-8338
整合	-8339
热带	-8340
资格	-8341
IGH	-8342
equ	-8343
mbH	-8344
可能性	-8345
▁CAD	-8346
▁agre	-8347
icious	-8348
▁Anton	-8349
▁Creat	-8350
▁Watch	-8351
▁Dating	-8352
▁convert	-8353
▁feeling	-8354
▁Financial	-8355
.'	-8356
52	-8357
▁投	-8358
在他	-8359
小型	-8360
推广	-8361
物的	-8362
顾问	-8363
ota	-8364
▁那么	-8365
▁fee	-8366
▁rot	-8367
▁Plan	-8368
▁skip	-8369
▁Lodge	-8370
▁citiz	-8371
▁weather	-8372
▁Although	-8373
一边	-8374
天的	-8375
引擎	-8376
抱歉	-8377
▁台湾	-8378
免费的	-8379
在那里	-8380
iano	-8381
info	-8382
itan	-8383
▁Mun	-8384
▁Tow	-8385
ender	-8386
▁ring	-8387
▁forms	-8388
▁unauthor	-8389
▁practices	-8390
▁wonderful	-8391
CM	-8392
sy	-8393
▁比	-8394
函数	-8395
曼谷	-8396
曾经	-8397
的和	-8398
英文	-8399
角色	-8400
▁sup	-8401
ILITY	-8402
▁Ocean	-8403
▁initi	-8404
▁diamond	-8405
▁Shopping	-8406
▁creating	-8407
动机	-8408
反馈	-8409
听到	-8410
导航	-8411
方的	-8412
▁Flowers	-8413
▁enhance	-8414
ategories	-8415
▁challenges	-8416
98	-8417
对其	-8418
就像	-8419
案例	-8420
每年	-8421
面临	-8422
也不会	-8423
isure	-8424
▁GmbH	-8425
▁edge	-8426
idents	-8427
▁Skype	-8428
▁cards	-8429
▁leader	-8430
▁states	-8431
▁Medical	-8432
▁particularly	-8433
XP	-8434
▁手	-8435
赌场	-8436
For	-8437
andy	-8438
▁react	-8439
▁replace	-8440
▁resource	-8441
▁confirmation	-8442
下去	-8443
-11	-8444
我们会	-8445
aysia	-8446
eller	-8447
▁Desk	-8448
▁secret	-8449
▁TECHNOLOG	-8450
VC	-8451
寿命	-8452
leb	-8453
经营者	-8454
▁价格从	-8455
▁born	-8456
▁gift	-8457
▁item	-8458
▁wrote	-8459
无线网络连接	-8460
▁Language	-8461
9,	-8462
架构	-8463
自助	-8464
都能	-8465
更多关于	-8466
inder	-8467
ollar	-8468
scape	-8469
ungsten	-8470
▁bottom	-8471
▁giving	-8472
▁Florence	-8473
▁happened	-8474
▁convenience	-8475
▁黑	-8476
传送	-8477
权限	-8478
个性化	-8479
的中心	-8480
atre	-8481
▁SAP	-8482
▁Sen	-8483
▁Size	-8484
▁Foreign	-8485
▁Exchange	-8486
▁supports	-8487
▁assistance	-8488
-7	-8489
传播	-8490
和无	-8491
扩大	-8492
指出	-8493
暗示	-8494
生的	-8495
news	-8496
olis	-8497
▁inj	-8498
ifier	-8499
▁Paper	-8500
▁Seoul	-8501
▁Stand	-8502
▁Moscow	-8503
▁thousands	-8504
▁correspond	-8505
了他	-8506
日常	-8507
邀请	-8508
▁44	-8509
产生的	-8510
基督徒	-8511
tech	-8512
▁你可以	-8513
▁burn	-8514
▁sight	-8515
conditioned	-8516
▁businesses	-8517
bg	-8518
会的	-8519
利率	-8520
坚持	-8521
对话	-8522
模板	-8523
特尔	-8524
▁Si	-8525
而发生	-8526
▁Bus	-8527
▁bag	-8528
ading	-8529
▁Visa	-8530
▁vary	-8531
elding	-8532
estival	-8533
▁billion	-8534
▁cheaper	-8535
▁sensors	-8536
▁answered	-8537
3:	-8538
上市	-8539
仅仅	-8540
单独	-8541
实用	-8542
感染	-8543
照明	-8544
特征	-8545
调节	-8546
car	-8547
▁HK	-8548
小时前台	-8549
▁anti	-8550
▁achie	-8551
▁calcul	-8552
▁Hostels	-8553
▁evidence	-8554
▁exclusive	-8555
▁timetables	-8556
▁toiletries	-8557
150	-8558
uxe	-8559
▁54	-8560
▁Ah	-8561
工程师	-8562
有关的	-8563
ario	-8564
cles	-8565
▁Luc	-8566
世界各地	-8567
ement	-8568
▁seven	-8569
▁claims	-8570
▁sector	-8571
▁minimum	-8572
▁currency	-8573
▁manufacturers	-8574
OB	-8575
二十	-8576
别人	-8577
运用	-8578
▁电视	-8579
实际上	-8580
所需的	-8581
alse	-8582
care	-8583
orrow	-8584
▁wear	-8585
▁editor	-8586
▁passed	-8587
▁walked	-8588
一篇	-8589
尊重	-8590
采购	-8591
重点	-8592
▁2-	-8593
▁ap	-8594
▁farm	-8595
atively	-8596
▁Golden	-8597
▁worked	-8598
▁committed	-8599
▁sometimes	-8600
▁warranties	-8601
享用	-8602
大约	-8603
是我	-8604
重复	-8605
▁3:	-8606
▁rock	-8607
分钟步行路程	-8608
▁advice	-8609
▁Congress	-8610
▁supported	-8611
▁conference	-8612
▁limitation	-8613
之中	-8614
其实	-8615
推出	-8616
汇率	-8617
ali	-8618
▁>>	-8619
喜欢的	-8620
子公司	-8621
的分析	-8622
的大小	-8623
▁Sky	-8624
基础设施	-8625
▁Perm	-8626
ensions	-8627
▁Shower	-8628
▁Converter	-8629
▁delivered	-8630
▁Protection	-8631
87	-8632
▁哈	-8633
▁四	-8634
▁因	-8635
册子	-8636
担任	-8637
收益	-8638
▁93	-8639
以任何	-8640
设备的	-8641
owna	-8642
▁Lib	-8643
▁Jade	-8644
▁drug	-8645
▁shape	-8646
电子邮件地址	-8647
▁applied	-8648
▁wrought	-8649
9)	-8650
ji	-8651
侵权	-8652
左侧	-8653
Pal	-8654
het	-8655
▁sy	-8656
▁USE	-8657
▁stru	-8658
▁wild	-8659
▁Beaut	-8660
▁Queen	-8661
keeping	-8662
▁attend	-8663
▁requesting	-8664
出发	-8665
友好	-8666
字符	-8667
放弃	-8668
暂停	-8669
amm	-8670
tty	-8671
▁BR	-8672
▁Ks	-8673
▁Mo	-8674
伟大的	-8675
eries	-8676
▁fell	-8677
▁gone	-8678
▁Tokyo	-8679
▁adopt	-8680
sterdam	-8681
▁spring	-8682
▁numbers	-8683
▁walking	-8684
UB	-8685
兄弟	-8686
改革	-8687
▁今天	-8688
有效的	-8689
IONS	-8690
ague	-8691
amin	-8692
gent	-8693
ione	-8694
▁integr	-8695
▁Village	-8696
▁demonst	-8697
▁carefully	-8698
▁优	-8699
两种	-8700
旁边	-8701
明示	-8702
森林	-8703
爱好	-8704
理念	-8705
礼物	-8706
铁艺	-8707
can	-8708
感兴趣	-8709
▁Rev	-8710
人和年轻	-8711
hester	-8712
rietary	-8713
▁Coffee	-8714
▁Spring	-8715
▁annual	-8716
▁delete	-8717
▁Kelowna	-8718
▁carried	-8719
▁positive	-8720
▁unlikely	-8721
大陆	-8722
怀疑	-8723
犯罪	-8724
精确	-8725
过的	-8726
AHC	-8727
▁RE	-8728
haps	-8729
oles	-8730
▁1.2	-8731
gment	-8732
▁gain	-8733
▁recover	-8734
▁resulting	-8735
▁electrical	-8736
▁interesting	-8737
▁Professional	-8738
Is	-8739
专用	-8740
业余	-8741
参阅	-8742
同一	-8743
学位	-8744
摄影	-8745
模具	-8746
电器	-8747
▁Tax	-8748
▁pet	-8749
酒店提供	-8750
atever	-8751
uclear	-8752
▁route	-8753
▁Middle	-8754
▁stability	-8755
▁characteristics	-8756
城堡	-8757
越南	-8758
imal	-8759
lesh	-8760
robe	-8761
▁Bah	-8762
▁vent	-8763
▁产品名称	-8764
atible	-8765
▁Dubai	-8766
▁Guide	-8767
▁老人和年轻	-8768
▁normal	-8769
▁graphics	-8770
DC	-8771
gn	-8772
▁更	-8773
厘米	-8774
瑞典	-8775
21.	-8776
rif	-8777
▁开始	-8778
life	-8779
▁150	-8780
▁Jul	-8781
▁本协议	-8782
▁Case	-8783
▁baby	-8784
▁scen	-8785
edding	-8786
▁Analog	-8787
▁income	-8788
▁Machinery	-8789
分布	-8790
型号	-8791
相互	-8792
▁游戏	-8793
您使用	-8794
▁120	-8795
▁Full	-8796
▁renew	-8797
▁fields	-8798
▁Economic	-8799
▁individuals	-8800
齐全的	-8801
▁cer	-8802
损害赔偿	-8803
eared	-8804
icial	-8805
▁Belg	-8806
▁logo	-8807
▁cells	-8808
▁chair	-8809
▁frame	-8810
▁struct	-8811
▁actions	-8812
▁becomes	-8813
▁designs	-8814
▁department	-8815
诊断	-8816
:30	-8817
▁上的	-8818
▁包括	-8819
是不是	-8820
的发展	-8821
List	-8822
▁Tro	-8823
▁lik	-8824
cient	-8825
ishes	-8826
▁deploy	-8827
▁repair	-8828
地上	-8829
▁而且	-8830
做什么	-8831
全世界	-8832
大部分	-8833
2010	-8834
oupe	-8835
▁eye	-8836
▁fat	-8837
▁我们在	-8838
▁ones	-8839
▁Integ	-8840
▁Phuket	-8841
▁sister	-8842
▁spiritual	-8843
▁Washington	-8844
93	-8845
▁接	-8846
出租	-8847
强度	-8848
潜在	-8849
ROM	-8850
▁DM	-8851
▁说明	-8852
▁返回	-8853
请使用	-8854
配备了	-8855
hent	-8856
▁Alt	-8857
▁什么是	-8858
价格保证	-8859
▁ENTER	-8860
▁incom	-8861
iveness	-8862
parture	-8863
▁anywhere	-8864
土耳	-8865
并非	-8866
很快	-8867
hua	-8868
▁47	-8869
▁交易	-8870
▁餐厅	-8871
图书馆	-8872
小册子	-8873
ulate	-8874
▁Cred	-8875
房内无线网络	-8876
▁starting	-8877
季节	-8878
开关	-8879
著作	-8880
部份	-8881
重量	-8882
azz	-8883
itz	-8884
▁46	-8885
土耳其	-8886
有任何	-8887
vely	-8888
▁Bul	-8889
机票价格	-8890
urisd	-8891
▁died	-8892
▁poly	-8893
ername	-8894
中华人民共和国	-8895
▁instant	-8896
▁Platform	-8897
▁violation	-8898
将被	-8899
尔顿	-8900
形状	-8901
的前	-8902
赢得	-8903
Red	-8904
▁以及	-8905
▁Bet	-8906
书面同意	-8907
客人提供	-8908
Hotel	-8909
▁Rate	-8910
▁matt	-8911
▁stri	-8912
videos	-8913
century	-8914
▁Valley	-8915
▁visual	-8916
▁Bedroom	-8917
▁sources	-8918
原始	-8919
回来	-8920
性别	-8921
性质	-8922
收取	-8923
表演	-8924
观光	-8925
和国际	-8926
客户的	-8927
第三者	-8928
Book	-8929
rest	-8930
oenix	-8931
▁evil	-8932
▁goal	-8933
▁inac	-8934
▁kiss	-8935
▁Award	-8936
▁Fresh	-8937
▁bless	-8938
▁Indian	-8939
▁Children	-8940
▁probably	-8941
▁Experience	-8942
▁Facilities	-8943
事项	-8944
帝国	-8945
等等	-8946
药物	-8947
还没有	-8948
flow	-8949
rier	-8950
show	-8951
▁Bur	-8952
▁deb	-8953
▁pal	-8954
▁wait	-8955
cision	-8956
▁VMware	-8957
▁priest	-8958
▁publish	-8959
▁religion	-8960
▁reliability	-8961
SM	-8962
天气	-8963
实在	-8964
本站	-8965
联络	-8966
通用	-8967
Mac	-8968
怎么办	-8969
▁tub	-8970
arium	-8971
craft	-8972
▁Steel	-8973
▁array	-8974
▁dream	-8975
▁resort	-8976
▁thanks	-8977
▁granted	-8978
▁officers	-8979
自身	-8980
里亚	-8981
▁mo	-8982
▁po	-8983
ibar	-8984
umes	-8985
▁SEO	-8986
▁Jose	-8987
▁beds	-8988
▁eleg	-8989
▁join	-8990
elling	-8991
▁Cojak	-8992
▁Castle	-8993
▁extent	-8994
▁extremely	-8995
创意	-8996
强制	-8997
迷你吧	-8998
▁Ren	-8999
▁Tom	-9000
▁Three	-9001
▁Greece	-9002
▁Outdoor	-9003
▁entrance	-9004
▁Christmas	-9005
▁Commission	-9006
▁罗	-9007
▁超	-9008
就在	-9009
打造	-9010
设立	-9011
-30	-9012
▁于是	-9013
▁部分	-9014
可能是	-9015
管理员	-9016
▁Jew	-9017
▁ven	-9018
duces	-9019
▁Chic	-9020
▁Clean	-9021
▁afford	-9022
▁faster	-9023
▁Academy	-9024
▁parents	-9025
▁directors	-9026
▁implementation	-9027
Su	-9028
伊斯	-9029
尔本	-9030
忘记	-9031
海洋	-9032
补充	-9033
add	-9034
▁cm	-9035
▁2006	-9036
▁fulf	-9037
iences	-9038
▁heavy	-9039
▁Before	-9040
▁beauty	-9041
▁easier	-9042
▁destinations	-9043
▁衣	-9044
吸烟	-9045
图表	-9046
日子	-9047
▁Jac	-9048
▁emb	-9049
endant	-9050
▁entry	-9051
▁negot	-9052
▁signal	-9053
▁proceed	-9054
▁showing	-9055
▁campaign	-9056
▁regional	-9057
Re	-9058
今年	-9059
复活	-9060
学家	-9061
它是	-9062
携带	-9063
样子	-9064
桑拿	-9065
终于	-9066
观点	-9067
ILL	-9068
▁AT	-9069
▁信息	-9070
▁这一	-9071
rome	-9072
esign	-9073
isher	-9074
▁vict	-9075
uggage	-9076
▁kinds	-9077
▁north	-9078
▁assess	-9079
客运和汽车轮渡票价	-9080
RG	-9081
合法	-9082
时期	-9083
机制	-9084
杂志	-9085
洛杉	-9086
pth	-9087
的生活	-9088
这样做	-9089
阿拉伯	-9090
iler	-9091
year	-9092
▁Low	-9093
▁cars	-9094
▁Analy	-9095
▁ports	-9096
引导	-9097
白色	-9098
阳光	-9099
▁设计	-9100
怎么样	-9101
2008	-9102
rypt	-9103
▁Amaz	-9104
▁CONT	-9105
▁Meet	-9106
▁club	-9107
▁pred	-9108
▁reading	-9109
▁mechanical	-9110
▁unauthorized	-9111
▁国	-9112
周期	-9113
均不	-9114
报道	-9115
普遍	-9116
鸡巴	-9117
▁广州	-9118
自定义	-9119
rich	-9120
▁Blu	-9121
▁Mov	-9122
▁Fact	-9123
▁Nort	-9124
▁stored	-9125
▁Library	-9126
▁historical	-9127
▁flexibility	-9128
▁transportation	-9129
92	-9130
美洲	-9131
高达	-9132
ania	-9133
▁IMP	-9134
▁Golf	-9135
▁quant	-9136
▁truly	-9137
▁weeks	-9138
▁discont	-9139
▁Resources	-9140
.0	-9141
51	-9142
污染	-9143
鼓励	-9144
ols	-9145
▁旅舍	-9146
我知道	-9147
neys	-9148
emale	-9149
osite	-9150
▁1000	-9151
▁Canc	-9152
▁Four	-9153
▁poor	-9154
▁澳大利亚	-9155
▁balance	-9156
▁removed	-9157
▁talking	-9158
▁creation	-9159
▁女	-9160
居住	-9161
eds	-9162
▁fit	-9163
或其任何	-9164
▁Mass	-9165
▁Federal	-9166
▁previously	-9167
▁translation	-9168
73	-9169
FC	-9170
▁熨	-9171
任意	-9172
动作	-9173
局部	-9174
悉尼	-9175
手册	-9176
透明	-9177
pat	-9178
▁请您	-9179
上帝的	-9180
的情况	-9181
bert	-9182
▁0.6	-9183
▁Cro	-9184
▁Pra	-9185
▁kept	-9186
▁opin	-9187
▁theory	-9188
▁evening	-9189
▁Collection	-9190
▁atmosphere	-9191
▁compliance	-9192
jo	-9193
一流	-9194
依赖	-9195
幸福	-9196
日起	-9197
石油	-9198
能量	-9199
脸上	-9200
苹果	-9201
轻轻	-9202
▁Bi	-9203
▁文龙	-9204
▁相关	-9205
巨大的	-9206
洛杉矶	-9207
▁dro	-9208
▁Thus	-9209
▁earn	-9210
▁liquid	-9211
与您	-9212
地位	-9213
大道	-9214
宠物	-9215
诉讼	-9216
预防	-9217
▁当前	-9218
在这个	-9219
提供商	-9220
alty	-9221
cure	-9222
dong	-9223
stra	-9224
▁10-	-9225
▁ALL	-9226
▁vul	-9227
我们将尽	-9228
▁Photos	-9229
▁Feature	-9230
▁numerous	-9231
GL	-9232
▁又	-9233
一年	-9234
否则	-9235
Mar	-9236
▁主页	-9237
达佩斯	-9238
这一点	-9239
alog	-9240
ragon	-9241
▁私人浴室	-9242
▁oblig	-9243
▁spect	-9244
outhern	-9245
▁battery	-9246
▁laundry	-9247
▁reserve	-9248
▁statement	-9249
▁Electronic	-9250
▁时	-9251
带着	-9252
敏感	-9253
职员	-9254
▁最佳	-9255
广泛的	-9256
的结果	-9257
连接到	-9258
ript	-9259
▁LLC	-9260
▁这就是	-9261
urban	-9262
▁Call	-9263
▁Wind	-9264
▁Intro	-9265
▁south	-9266
▁title	-9267
▁cookie	-9268
▁vision	-9269
▁driving	-9270
▁student	-9271
▁produced	-9272
▁strengthen	-9273
Co	-9274
公路	-9275
履行	-9276
阶级	-9277
投资者	-9278
▁Drop	-9279
▁label	-9280
▁column	-9281
▁pattern	-9282
▁seconds	-9283
▁subsidi	-9284
▁updated	-9285
ictionary	-9286
▁generally	-9287
Se	-9288
监管	-9289
不需要	-9290
本使用	-9291
问题的	-9292
▁Att	-9293
最大努力	-9294
▁layout	-9295
▁objects	-9296
▁completed	-9297
▁permitted	-9298
Bl	-9299
If	-9300
在中	-9301
天主	-9302
您对	-9303
清除	-9304
物业	-9305
飞行	-9306
首次	-9307
▁全球	-9308
了一下	-9309
lymp	-9310
我们承诺	-9311
icine	-9312
▁COMP	-9313
ountry	-9314
能够获得现场	-9315
▁Sports	-9316
▁satisf	-9317
idelines	-9318
▁healthy	-9319
▁Minister	-9320
▁straight	-9321
▁你是能够获得现场	-9322
▁Amsterdam	-9323
▁recreational	-9324
▁complimentary	-9325
习惯	-9326
某一	-9327
浪漫	-9328
痛苦	-9329
统一	-9330
101	-9331
▁国家	-9332
出现在	-9333
▁dou	-9334
▁occup	-9335
▁scale	-9336
▁Create	-9337
▁corner	-9338
▁museum	-9339
▁orders	-9340
▁Phoenix	-9341
▁securely	-9342
加斯	-9343
协调	-9344
地亚	-9345
排放	-9346
的不	-9347
皇家	-9348
监督	-9349
看了	-9350
精品	-9351
餐饮	-9352
先进的	-9353
每一个	-9354
的费用	-9355
date	-9356
▁mot	-9357
▁syn	-9358
▁tab	-9359
lying	-9360
▁apps	-9361
▁lock	-9362
▁重要信息	-9363
▁Azure	-9364
▁loved	-9365
▁Change	-9366
▁happen	-9367
▁manual	-9368
▁covered	-9369
▁although	-9370
▁obtained	-9371
▁appointed	-9372
▁partnership	-9373
▁再	-9374
机和	-9375
▁Oh	-9376
▁万一	-9377
2018	-9378
抵达时间	-9379
▁eight	-9380
▁Temple	-9381
emplates	-9382
▁ENTERPR	-9383
▁arrange	-9384
▁reduced	-9385
▁Offering	-9386
▁compress	-9387
83	-9388
bi	-9389
仪器	-9390
外观	-9391
体中文	-9392
间客房	-9393
anna	-9394
▁Aqu	-9395
▁Sav	-9396
▁互联网	-9397
▁此页面	-9398
▁Wang	-9399
▁cart	-9400
ensity	-9401
▁Guadel	-9402
▁heating	-9403
▁Guadeloupe	-9404
▁图	-9405
▁微	-9406
修订	-9407
电力	-9408
维尔	-9409
▁Es	-9410
▁中的	-9411
面设计	-9412
long	-9413
▁1.5	-9414
▁Ill	-9415
▁beg	-9416
▁cop	-9417
riott	-9418
▁wasn	-9419
▁Sorry	-9420
▁assets	-9421
▁couldn	-9422
▁mainly	-9423
▁fashion	-9424
▁reality	-9425
rd	-9426
▁格	-9427
司法	-9428
成果	-9429
桌面	-9430
DVD	-9431
Ind	-9432
▁你的	-9433
▁添加	-9434
退款的	-9435
2009	-9436
▁Nan	-9437
▁Spec	-9438
▁seek	-9439
▁Metro	-9440
▁books	-9441
▁actual	-9442
▁jurisd	-9443
ibration	-9444
▁distribute	-9445
▁inspection	-9446
之旅	-9447
担心	-9448
120	-9449
ALL	-9450
▁EU	-9451
现代化	-9452
onom	-9453
▁goes	-9454
住宿加早餐	-9455
ifying	-9456
▁medium	-9457
▁Univers	-9458
▁温	-9459
依然	-9460
公众	-9461
垃圾	-9462
旋转	-9463
答案	-9464
荣耀	-9465
▁未经	-9466
▁泰国	-9467
和一个	-9468
工作的	-9469
down	-9470
stan	-9471
▁Hung	-9472
▁west	-9473
▁Tools	-9474
▁named	-9475
▁toward	-9476
▁element	-9477
▁prepared	-9478
强调	-9479
循环	-9480
技巧	-9481
渠道	-9482
▁距离	-9483
在美国	-9484
墨尔本	-9485
尤其是	-9486
eler	-9487
iami	-9488
pire	-9489
▁repe	-9490
▁Treat	-9491
▁Credit	-9492
▁Poland	-9493
tainment	-9494
▁leisure	-9495
▁workers	-9496
▁families	-9497
▁expertise	-9498
As	-9499
各国	-9500
最多	-9501
漂亮	-9502
焊接	-9503
足球	-9504
铁路	-9505
▁任何	-9506
的声音	-9507
的照片	-9508
▁Cru	-9509
▁hus	-9510
▁Camb	-9511
▁sweet	-9512
inburgh	-9513
▁Peters	-9514
▁larger	-9515
▁北	-9516
信心	-9517
有着	-9518
红色	-9519
ACK	-9520
▁NO	-9521
▁系列	-9522
可用性	-9523
大量的	-9524
高尔夫	-9525
ilos	-9526
提前告知	-9527
▁Made	-9528
▁Mall	-9529
▁Tags	-9530
▁rise	-9531
▁primary	-9532
▁remains	-9533
▁locations	-9534
BS	-9535
ds	-9536
他是	-9537
先知	-9538
或不	-9539
笔记	-9540
简介	-9541
设定	-9542
车客	-9543
邮箱	-9544
面向	-9545
▁在这	-9546
内容的	-9547
ante	-9548
▁arms	-9549
▁fill	-9550
▁huge	-9551
旅游经营者	-9552
▁coast	-9553
▁plants	-9554
▁printing	-9555
▁collected	-9556
07	-9557
fl	-9558
使您	-9559
假期	-9560
建造	-9561
打算	-9562
让她	-9563
近似	-9564
▁位置	-9565
▁儿童	-9566
▁欧洲	-9567
与其他	-9568
2011	-9569
FORM	-9570
acing	-9571
▁solid	-9572
预计抵达时间	-9573
▁belong	-9574
▁profession	-9575
▁岁	-9576
将来	-9577
百万	-9578
▁SK	-9579
▁Ve	-9580
▁伦敦	-9581
额外的	-9582
AHCT	-9583
DUCT	-9584
core	-9585
▁Dan	-9586
▁要预订	-9587
分钟车程	-9588
adium	-9589
▁Sens	-9590
▁errors	-9591
▁networks	-9592
05	-9593
意外	-9594
接近	-9595
秘密	-9596
索赔	-9597
金山	-9598
But	-9599
nan	-9600
▁不要	-9601
舒适的	-9602
或为您提供	-9603
▁Domain	-9604
▁absolut	-9605
▁tourist	-9606
▁importance	-9607
▁Environment	-9608
一名	-9609
现金	-9610
进了	-9611
难以	-9612
how	-9613
och	-9614
▁SOL	-9615
击败的价格	-9616
申请退款的	-9617
选择的小册子	-9618
其他旅游经营者	-9619
igration	-9620
▁infring	-9621
我们将尽最大努力	-9622
▁behavior	-9623
▁contained	-9624
击败的价格或为您提供	-9625
申请退款的选择的小册子	-9626
▁housekeeping	-9627
▁【	-9628
定向	-9629
您所	-9630
研讨	-9631
航行	-9632
过了	-9633
bum	-9634
ipl	-9635
平板电视	-9636
icing	-9637
▁Rich	-9638
▁imag	-9639
▁stone	-9640
isement	-9641
▁patients	-9642
▁proprietary	-9643
▁十	-9644
加热	-9645
我在	-9646
难道	-9647
ati	-9648
中国的	-9649
在我们	-9650
▁Fab	-9651
▁Tea	-9652
▁dut	-9653
客户提供	-9654
▁gets	-9655
▁false	-9656
▁module	-9657
emporary	-9658
▁compared	-9659
▁entertainment	-9660
达成	-9661
-25	-9662
▁5,	-9663
▁TE	-9664
事实上	-9665
平方米	-9666
是必填	-9667
body	-9668
▁101	-9669
▁mus	-9670
娱乐设施	-9671
oshop	-9672
▁disk	-9673
▁plans	-9674
▁Amateur	-9675
▁guarant	-9676
会儿	-9677
取代	-9678
启用	-9679
完善	-9680
教徒	-9681
智慧	-9682
蛋白	-9683
释放	-9684
ima	-9685
▁CS	-9686
用户的	-9687
▁Pri	-9688
▁2019	-9689
▁plug	-9690
▁susp	-9691
market	-9692
▁village	-9693
▁scientific	-9694
冷却	-9695
最好	-9696
竟然	-9697
结婚	-9698
销商	-9699
ARD	-9700
▁1)	-9701
▁SC	-9702
休息区	-9703
▁0.8	-9704
▁isn	-9705
等方面的	-9706
▁Radio	-9707
▁Friend	-9708
▁forest	-9709
▁script	-9710
▁Finland	-9711
▁Vietnam	-9712
四十	-9713
定期	-9714
家里	-9715
开了	-9716
▁).	-9717
▁cas	-9718
▁pun	-9719
是必填的	-9720
▁Diam	-9721
▁Docu	-9722
▁Team	-9723
▁Wood	-9724
▁lack	-9725
▁mail	-9726
curate	-9727
而发生的任何	-9728
ulations	-9729
▁Marriott	-9730
IX	-9731
▁}	-9732
公布	-9733
凭借	-9734
医学	-9735
大使	-9736
差异	-9737
您要	-9738
显著	-9739
样品	-9740
此处	-9741
疑问	-9742
首先	-9743
▁最近	-9744
请联系	-9745
stal	-9746
▁Cab	-9747
▁Win	-9748
▁服务器	-9749
asure	-9750
claim	-9751
▁Date	-9752
▁Tian	-9753
ective	-9754
▁Olymp	-9755
▁explo	-9756
▁panel	-9757
▁widely	-9758
▁playing	-9759
▁authority	-9760
▁principles	-9761
61	-9762
▁双	-9763
给他	-9764
▁可是	-9765
▁Mid	-9766
proof	-9767
▁版权所有	-9768
▁Excel	-9769
▁Login	-9770
▁forces	-9771
▁seating	-9772
▁studies	-9773
▁Register	-9774
▁automation	-9775
FT	-9776
pa	-9777
▁周	-9778
一台	-9779
句话	-9780
地利	-9781
损毁	-9782
真是	-9783
线路	-9784
▁Wu	-9785
▁aw	-9786
来西亚	-9787
osis	-9788
rief	-9789
▁600	-9790
▁Cit	-9791
lient	-9792
▁SITE	-9793
▁reve	-9794
▁territ	-9795
▁courses	-9796
▁finally	-9797
▁Previous	-9798
▁Certified	-9799
IO	-9800
ão	-9801
▁五	-9802
▁单	-9803
入口	-9804
器和	-9805
在于	-9806
奖励	-9807
欧元	-9808
角度	-9809
Yes	-9810
▁6,	-9811
可提供	-9812
....	-9813
ilit	-9814
▁INC	-9815
▁Its	-9816
可以使用	-9817
▁ship	-9818
▁平面设计	-9819
▁driver	-9820
▁Indones	-9821
▁Philipp	-9822
▁concent	-9823
科技股份有限公司	-9824
买到	-9825
优越	-9826
你说	-9827
促销	-9828
加以	-9829
口头	-9830
▁4:	-9831
的全包	-9832
olic	-9833
▁sty	-9834
adian	-9835
▁这是一个	-9836
你找到相同	-9837
▁seems	-9838
▁reform	-9839
▁Install	-9840
▁hearing	-9841
▁万一你找到相同	-9842
▁consumer	-9843
▁microwave	-9844
▁万一你找到相同的全包	-9845
也纳	-9846
你不	-9847
巴士	-9848
接待	-9849
电压	-9850
相反	-9851
订购	-9852
路径	-9853
cat	-9854
为您的	-9855
和密码	-9856
当事人	-9857
aria	-9858
olar	-9859
otal	-9860
pite	-9861
▁Bon	-9862
▁Han	-9863
▁Mah	-9864
▁god	-9865
▁tal	-9866
度假酒店	-9867
azine	-9868
▁Jobs	-9869
▁thick	-9870
▁Single	-9871
▁library	-9872
▁regions	-9873
在任何其他旅游经营者	-9874
申请退款的选择的小册子便宜	-9875
▁概	-9876
主管	-9877
电缆	-9878
线上	-9879
but	-9880
▁7,	-9881
▁DE	-9882
旧金山	-9883
的历史	-9884
未经授权	-9885
anned	-9886
opped	-9887
▁drop	-9888
▁ille	-9889
orship	-9890
▁Motel	-9891
▁chance	-9892
▁herself	-9893
Ab	-9894
sl	-9895
巴西	-9896
编码	-9897
▁43	-9898
▁咖啡	-9899
▁天气	-9900
传统的	-9901
机器人	-9902
▁bra	-9903
可以通过	-9904
elcom	-9905
itors	-9906
style	-9907
▁Ball	-9908
▁Mond	-9909
▁Index	-9910
▁Phone	-9911
▁exhib	-9912
▁strict	-9913
ximately	-9914
▁Virtual	-9915
▁TECHNOLOGY	-9916
▁techniques	-9917
▁confidential	-9918
像素	-9919
面板	-9920
rum	-9921
的公寓	-9922
ayer	-9923
▁Isl	-9924
购物中心	-9925
known	-9926
▁cand	-9927
ourite	-9928
▁suspend	-9929
▁Advanced	-9930
▁displayed	-9931
▁capabilities	-9932
▁Entertainment	-9933
听见	-9934
她们	-9935
尔德	-9936
等待	-9937
-16	-9938
New	-9939
was	-9940
可用于	-9941
anta	-9942
Funia	-9943
PRESS	-9944
ABILITY	-9945
▁sitting	-9946
▁mathemat	-9947
▁strategic	-9948
深入	-9949
的规定	-9950
▁dog	-9951
▁thank	-9952
▁combined	-9953
▁standing	-9954
▁presented	-9955
▁PhotoFunia	-9956
!!	-9957
CS	-9958
do	-9959
▁想	-9960
依据	-9961
兑换	-9962
基地	-9963
重大	-9964
▁(2	-9965
▁预订	-9966
和使用	-9967
▁gar	-9968
plays	-9969
▁enem	-9970
▁clock	-9971
明确书面同意	-9972
▁retail	-9973
▁contents	-9974
▁teaching	-9975
▁continuous	-9976
▁university	-9977
kh	-9978
▁乌	-9979
例子	-9980
匹配	-9981
就能	-9982
布鲁	-9983
强烈	-9984
投入	-9985
教学	-9986
▁并且	-9987
必要的	-9988
quet	-9989
▁Ash	-9990
▁Ext	-9991
▁Oil	-9992
上的内容	-9993
China	-9994
▁hall	-9995
charge	-9996
▁grand	-9997
▁merch	-9998
▁newer	-9999
▁handle	-10000
▁freedom	-10001
您的预计抵达时间	-10002
▁WARRANTIES	-10003
决策	-10004
失败	-10005
援助	-10006
OME	-10007
▁巴黎	-10008
image	-10009
▁Walk	-10010
▁YOUR	-10011
▁rule	-10012
和乘客船票	-10013
inated	-10014
▁Cheap	-10015
▁sheet	-10016
venture	-10017
▁Korean	-10018
▁appears	-10019
▁massage	-10020
▁players	-10021
▁welding	-10022
▁conflict	-10023
不好	-10024
乐趣	-10025
事先	-10026
心理	-10027
护理	-10028
生态	-10029
精度	-10030
缺乏	-10031
许可证	-10032
cend	-10033
▁Nice	-10034
▁贴牌生产	-10035
isonic	-10036
istant	-10037
▁Using	-10038
▁Follow	-10039
▁couple	-10040
▁请您提前告知	-10041
▁exactly	-10042
▁handling	-10043
我们的最低机票价格	-10044
-8	-10045
ls	-10046
内存	-10047
收购	-10048
暖气	-10049
正是	-10050
orf	-10051
uzz	-10052
技术的	-10053
转换器	-10054
aked	-10055
▁AUD	-10056
▁Die	-10057
你自己的	-10058
所提供的	-10059
维基百科	-10060
▁Resp	-10061
▁Front	-10062
▁Small	-10063
▁Space	-10064
portion	-10065
▁Unisonic	-10066
▁customized	-10067
▁institutions	-10068
办事	-10069
大厦	-10070
干燥	-10071
愿望	-10072
衍生	-10073
ONG	-10074
▁Os	-10075
▁交友	-10076
分公司	-10077
▁Pub	-10078
akers	-10079
▁rank	-10080
▁sect	-10081
▁agreed	-10082
▁powder	-10083
▁critical	-10084
▁measuring	-10085
▁authorities	-10086
-4	-10087
PA	-10088
uz	-10089
▁非	-10090
型的	-10091
头发	-10092
成就	-10093
纤维	-10094
贷款	-10095
▁49	-10096
▁SS	-10097
▁TL	-10098
在您的	-10099
有没有	-10100
ABLE	-10101
▁Sar	-10102
levard	-10103
▁Tours	-10104
提供预订超过	-10105
▁deleted	-10106
▁implied	-10107
▁interpre	-10108
▁influence	-10109
▁trademarks	-10110
实体	-10111
情形	-10112
某个	-10113
液体	-10114
清晰	-10115
灵魂	-10116
症状	-10117
端口	-10118
320	-10119
ELL	-10120
Why	-10121
一定会	-10122
莫斯科	-10123
inet	-10124
ribe	-10125
▁(4)	-10126
▁mal	-10127
▁calls	-10128
content	-10129
▁hidden	-10130
ifically	-10131
▁England	-10132
▁extensive	-10133
EA	-10134
军队	-10135
利斯	-10136
密封	-10137
有时	-10138
网址	-10139
AST	-10140
ICS	-10141
▁98	-10142
▁户外	-10143
▁评论	-10144
▁谷歌	-10145
并不是	-10146
或通过	-10147
相同的	-10148
▁加拿大	-10149
▁耶和华	-10150
▁Cable	-10151
ruption	-10152
▁exceed	-10153
▁invent	-10154
▁Section	-10155
▁daughter	-10156
▁instrument	-10157
GA	-10158
专注	-10159
真理	-10160
秘书	-10161
部长	-10162
门口	-10163
ulf	-10164
▁fr	-10165
▁基于	-10166
▁网上	-10167
尽可能	-10168
▁hur	-10169
▁Save	-10170
▁Sund	-10171
▁elim	-10172
▁rare	-10173
▁Coast	-10174
▁Louis	-10175
▁Maria	-10176
▁girls	-10177
▁Browse	-10178
▁smooth	-10179
▁Malaysia	-10180
ko	-10181
▁名	-10182
▁把	-10183
级别	-10184
订立	-10185
门徒	-10186
▁1/	-10187
▁Sn	-10188
reme	-10189
west	-10190
▁RES	-10191
智能手机	-10192
▁Wild	-10193
▁weak	-10194
▁simpl	-10195
▁taste	-10196
▁contin	-10197
▁schools	-10198
▁harmless	-10199
Gu	-10200
合并	-10201
图标	-10202
处的	-10203
紧急	-10204
遗产	-10205
-13	-10206
esh	-10207
▁EV	-10208
▁在此	-10209
▁设备	-10210
车客渡	-10211
THER	-10212
otes	-10213
reci	-10214
▁cab	-10215
▁kil	-10216
▁san	-10217
compl	-10218
▁Stay	-10219
▁mist	-10220
hedral	-10221
▁Madrid	-10222
▁Related	-10223
▁neither	-10224
▁voltage	-10225
一体	-10226
也许	-10227
含有	-10228
和你	-10229
清洗	-10230
Inf	-10231
▁("	-10232
信息的	-10233
▁Ave	-10234
about	-10235
iller	-10236
ocket	-10237
ushed	-10238
water	-10239
▁Status	-10240
▁Comfort	-10241
▁mountain	-10242
VM	-10243
安静	-10244
房屋	-10245
负载	-10246
▁(3	-10247
▁08	-10248
▁58	-10249
▁Ast	-10250
faces	-10251
▁Like	-10252
▁arch	-10253
▁disclose	-10254
▁thousand	-10255
▁vehicles	-10256
WebResource	-10257
▁transmission	-10258
df	-10259
▁花	-10260
了吗	-10261
依照	-10262
军事	-10263
快捷	-10264
永恒	-10265
老公	-10266
马拉	-10267
uum	-10268
orial	-10269
▁Moses	-10270
▁African	-10271
▁luggage	-10272
▁changing	-10273
Im	-10274
了我	-10275
检验	-10276
uke	-10277
大酒店	-10278
▁250	-10279
考虑这些	-10280
▁Nord	-10281
▁PART	-10282
▁Sand	-10283
▁sets	-10284
▁Miami	-10285
▁Swiss	-10286
▁entity	-10287
▁Whether	-10288
▁Province	-10289
▁Featuring	-10290
▁television	-10291
兴奋	-10292
有了	-10293
见证	-10294
ela	-10295
▁97	-10296
和提示	-10297
文件夹	-10298
的世界	-10299
连接器	-10300
露营地	-10301
raid	-10302
▁2.5	-10303
▁ble	-10304
▁sac	-10305
▁Amazon	-10306
▁career	-10307
▁negoti	-10308
▁pretty	-10309
▁Chicago	-10310
▁EXPRESS	-10311
▁LIMITED	-10312
▁dynamic	-10313
▁kingdom	-10314
▁nearest	-10315
▁improved	-10316
▁Petersburg	-10317
▁sustainable	-10318
加密	-10319
场合	-10320
期待	-10321
股东	-10322
ito	-10323
ogg	-10324
▁64	-10325
▁英文	-10326
有很多	-10327
板电视	-10328
给我们	-10329
▁Ger	-10330
▁NEW	-10331
▁pix	-10332
lando	-10333
stall	-10334
uttle	-10335
▁agric	-10336
▁wheel	-10337
▁sample	-10338
▁signed	-10339
▁Another	-10340
▁husband	-10341
▁Corporate	-10342
▁ENTERPRISE	-10343
06	-10344
RS	-10345
日内	-10346
早期	-10347
更高	-10348
烤箱	-10349
统治	-10350
还要	-10351
▁Po	-10352
佛罗伦	-10353
明示或	-10354
▁adm	-10355
▁eth	-10356
crete	-10357
rings	-10358
▁你是否有	-10359
herlands	-10360
▁indirect	-10361
▁intended	-10362
欧洲主要渡轮营办商包括	-10363
▁使	-10364
▁光	-10365
分子	-10366
分辨	-10367
慢慢	-10368
拍摄	-10369
旅程	-10370
珺梅	-10371
的那	-10372
舒服	-10373
蓝色	-10374
都要	-10375
CAD	-10376
▁Kn	-10377
iner	-10378
▁800	-10379
▁bou	-10380
▁mut	-10381
▁Gate	-10382
▁kids	-10383
▁我们始终	-10384
附近的住宿	-10385
▁flight	-10386
vironments	-10387
▁mechanism	-10388
▁procedures	-10389
09	-10390
NU	-10391
上面	-10392
中断	-10393
借助	-10394
次数	-10395
热情	-10396
身边	-10397
job	-10398
pton	-10399
▁III	-10400
▁Soi	-10401
▁和附近	-10402
▁cash	-10403
▁mold	-10404
▁sofa	-10405
和提示关于	-10406
▁Buddh	-10407
▁和附近周围	-10408
▁closet	-10409
▁你是否有经验	-10410
▁建议和提示关于	-10411
▁pleasant	-10412
▁preferred	-10413
▁responded	-10414
▁Foundation	-10415
▁agreements	-10416
名为	-10417
装修	-10418
▁CL	-10419
▁Da	-10420
▁ER	-10421
▁旅游	-10422
复杂的	-10423
的链接	-10424
atur	-10425
▁Dar	-10426
▁Sym	-10427
▁bes	-10428
▁lib	-10429
▁Jews	-10430
▁waste	-10431
▁danger	-10432
▁estate	-10433
▁Antonio	-10434
▁announced	-10435
▁certainly	-10436
▁Architecture	-10437
pm	-10438
▁普	-10439
保健	-10440
刚才	-10441
利时	-10442
斯塔	-10443
爸爸	-10444
真空	-10445
阻止	-10446
安全的	-10447
经销商	-10448
ussy	-10449
▁DIS	-10450
▁sky	-10451
个人数据	-10452
amber	-10453
ptoms	-10454
ython	-10455
▁Porto	-10456
▁paint	-10457
▁Silver	-10458
▁Manufact	-10459
▁INDUSTRIAL	-10460
▁experienced	-10461
▁participate	-10462
共产	-10463
分离	-10464
国王	-10465
壁纸	-10466
对此	-10467
就要	-10468
市的	-10469
电路	-10470
议会	-10471
这次	-10472
进去	-10473
PER	-10474
web	-10475
的资料	-10476
▁Van	-10477
佛罗伦萨	-10478
您的信息	-10479
iliar	-10480
ospel	-10481
▁Users	-10482
▁sides	-10483
▁Thanks	-10484
▁symbol	-10485
▁temple	-10486
▁Capital	-10487
▁subsequ	-10488
▁waiting	-10489
访问的页面不存在	-10490
▁Archives	-10491
▁possibility	-10492
IE	-10493
TV	-10494
制的	-10495
刺激	-10496
皮肤	-10497
考试	-10498
imb	-10499
▁DR	-10500
▁PM	-10501
发展的	-10502
可靠性	-10503
地铁站	-10504
每个人	-10505
的保证	-10506
rees	-10507
▁Cer	-10508
error	-10509
going	-10510
▁Dest	-10511
▁Very	-10512
▁pure	-10513
▁sport	-10514
holders	-10515
▁nearly	-10516
▁helpful	-10517
▁portfolio	-10518
是世界上最大的在线船票	-10519
:4.0.30319.34	-10520
▁environments	-10521
3/	-10522
uy	-10523
▁古	-10524
创作	-10525
前述	-10526
哪个	-10527
期限	-10528
案件	-10529
附件	-10530
ret	-10531
spa	-10532
▁Ir	-10533
是我们	-10534
Prov	-10535
▁sand	-10536
查询和预订	-10537
▁Glass	-10538
▁James	-10539
▁incur	-10540
▁spoke	-10541
▁也考虑这些	-10542
▁brings	-10543
▁welcom	-10544
▁defined	-10545
▁也考虑这些位于	-10546
▁citizens	-10547
▁machinery	-10548
PM	-10549
▁问	-10550
众人	-10551
您和	-10552
教师	-10553
选举	-10554
龙涛	-10555
oma	-10556
▁印度	-10557
伊斯兰	-10558
的儿子	-10559
abet	-10560
amai	-10561
▁CRM	-10562
▁Tai	-10563
▁XXX	-10564
▁diagn	-10565
▁indemn	-10566
▁notify	-10567
▁vulner	-10568
▁或其附近的住宿	-10569
▁Comments	-10570
eo	-10571
推进	-10572
职位	-10573
ENG	-10574
▁Ut	-10575
▁透过	-10576
或终止	-10577
ibly	-10578
raul	-10579
▁ODM	-10580
▁Rio	-10581
endar	-10582
▁Unit	-10583
▁Vent	-10584
▁agent	-10585
▁smile	-10586
▁tight	-10587
▁doctor	-10588
▁Mountain	-10589
▁Portugal	-10590
▁Recovery	-10591
▁Victoria	-10592
▁requests	-10593
▁expressly	-10594
▁Applications	-10595
▁certification	-10596
HS	-10597
qi	-10598
▁王	-10599
二手	-10600
产地	-10601
填写	-10602
武器	-10603
特拉	-10604
理事	-10605
Car	-10606
aks	-10607
▁LI	-10608
▁利用	-10609
▁即使	-10610
▁旅馆	-10611
十字架	-10612
灵活性	-10613
独立的	-10614
▁Run	-10615
▁Gene	-10616
▁elev	-10617
▁laun	-10618
▁sins	-10619
▁Compl	-10620
▁Costa	-10621
▁bread	-10622
▁looks	-10623
▁Silicon	-10624
▁operate	-10625
▁referred	-10626
▁detection	-10627
▁Investment	-10628
2:	-10629
外交	-10630
是有	-10631
玩家	-10632
.00	-10633
▁41	-10634
▁EC	-10635
▁一些	-10636
企业的	-10637
处理器	-10638
irty	-10639
ucky	-10640
▁Did	-10641
▁fab	-10642
utsch	-10643
▁Enjoy	-10644
▁Vista	-10645
▁chart	-10646
▁fixed	-10647
▁funds	-10648
clusion	-10649
▁belief	-10650
▁dinner	-10651
▁explore	-10652
▁becoming	-10653
▁reported	-10654
为您提供我们的最低	-10655
▁practical	-10656
▁telephone	-10657
▁transform	-10658
Fl	-10659
je	-10660
kt	-10661
‚¬	-10662
主页	-10663
从来	-10664
信赖	-10665
接送	-10666
积分	-10667
美的	-10668
自我	-10669
让他	-10670
IVE	-10671
fox	-10672
peg	-10673
▁Id	-10674
▁SG	-10675
▁业余	-10676
▁工作	-10677
公寓在	-10678
CLUD	-10679
icks	-10680
▁Way	-10681
▁hab	-10682
tyard	-10683
▁Agoda	-10684
▁Sites	-10685
▁charm	-10686
▁launch	-10687
▁最低价格保证	-10688
▁matters	-10689
工业股份有限公司	-10690
▁competition	-10691
▁successfully	-10692
▁我们始终为您提供我们的最低	-10693
DB	-10694
下降	-10695
更换	-10696
盛顿	-10697
较新	-10698
非法	-10699
HYIP	-10700
inch	-10701
unes	-10702
巴塞罗那	-10703
预订表格	-10704
仔细的分析	-10705
▁Greek	-10706
▁slight	-10707
▁convers	-10708
▁counter	-10709
▁appeared	-10710
▁superior	-10711
Us	-10712
▁六	-10713
中所	-10714
力和	-10715
地带	-10716
复合	-10717
巨大	-10718
的好	-10719
/12	-10720
00,	-10721
▁一般	-10722
▁最多	-10723
出来的	-10724
▁ing	-10725
▁Cape	-10726
▁Vote	-10727
▁blow	-10728
▁mini	-10729
▁seat	-10730
ronics	-10731
urious	-10732
▁Princ	-10733
▁Venice	-10734
▁temper	-10735
▁mission	-10736
▁stopped	-10737
▁windows	-10738
▁Featured	-10739
▁Transport	-10740
▁buildings	-10741
你所	-10742
太平	-10743
往往	-10744
留下	-10745
ERY	-10746
▁ec	-10747
▁注意	-10748
▁浏览	-10749
市场的	-10750
-250	-10751
LIED	-10752
▁Deb	-10753
▁Nap	-10754
netic	-10755
using	-10756
engers	-10757
▁solar	-10758
▁Lisbon	-10759
▁Martin	-10760
▁extend	-10761
▁pulled	-10762
▁refuse	-10763
▁serves	-10764
▁precision	-10765
▁manufacturer	-10766
▁administration	-10767
▁°	-10768
出于	-10769
成了	-10770
构架	-10771
诺斯	-10772
车站	-10773
-20	-10774
▁Ep	-10775
▁ep	-10776
avor	-10777
dden	-10778
▁Fer	-10779
▁unw	-10780
level	-10781
▁(199	-10782
▁push	-10783
我们的网站	-10784
▁Activ	-10785
▁afraid	-10786
▁issued	-10787
▁clearly	-10788
▁founded	-10789
▁Ministry	-10790
▁Edinburgh	-10791
▁component	-10792
▁advantages	-10793
▁productivity	-10794
▁Semiconductors	-10795
做了	-10796
现象	-10797
精密	-10798
▁局部	-10799
永久的	-10800
重定向	-10801
领先的	-10802
inos	-10803
izer	-10804
▁IBM	-10805
gency	-10806
▁hath	-10807
▁rack	-10808
▁piece	-10809
▁Deluxe	-10810
▁prompt	-10811
ographic	-10812
▁Austria	-10813
▁Consult	-10814
▁prepare	-10815
▁finished	-10816
▁Precision	-10817
▁religious	-10818
▁determined	-10819
▁interactive	-10820
丈夫	-10821
圣诞	-10822
百分	-10823
著名	-10824
EUN	-10825
▁会议	-10826
▁只有	-10827
在他的	-10828
研讨会	-10829
osen	-10830
▁Have	-10831
安全请使用	-10832
▁Close	-10833
▁Homes	-10834
▁Tweet	-10835
▁Histor	-10836
▁IMPLIED	-10837
▁appreci	-10838
▁Features	-10839
▁Photoshop	-10840
▁stainless	-10841
▁parameters	-10842
My	-10843
RA	-10844
▁埃	-10845
十五	-10846
大卫	-10847
左右	-10848
暂时	-10849
消除	-10850
融合	-10851
街道	-10852
身子	-10853
USE	-10854
cut	-10855
▁销售	-10856
不锈钢	-10857
世界的	-10858
时间表	-10859
生产线	-10860
的目的	-10861
gest	-10862
oker	-10863
▁roy	-10864
卫星电视	-10865
▁Hello	-10866
▁usage	-10867
▁houses	-10868
▁Locality	-10869
▁relating	-10870
▁obligation	-10871
▁Netherlands	-10872
▁recommended	-10873
▁Administration	-10874
Le	-10875
TX	-10876
▁萨	-10877
也能	-10878
和他	-10879
液压	-10880
磁盘	-10881
▁Ta	-10882
▁亚洲	-10883
在中国	-10884
完美的	-10885
的一天	-10886
看起来	-10887
aren	-10888
▁bul	-10889
▁我们将	-10890
服务条款	-10891
pping	-10892
▁Easy	-10893
▁Jour	-10894
较新版本的	-10895
▁Happy	-10896
▁viewed	-10897
▁Florida	-10898
▁Tickets	-10899
▁thermal	-10900
▁Channels	-10901
▁instance	-10902
▁concerning	-10903
公告	-10904
冒险	-10905
发言	-10906
并将	-10907
手段	-10908
流动	-10909
维持	-10910
视觉	-10911
记忆	-10912
fit	-10913
▁65	-10914
被称为	-10915
irds	-10916
▁900	-10917
▁Yah	-10918
▁cos	-10919
▁thr	-10920
isson	-10921
▁Song	-10922
▁empt	-10923
▁lose	-10924
▁tail	-10925
▁Georg	-10926
▁goals	-10927
▁wants	-10928
jection	-10929
oration	-10930
quality	-10931
▁George	-10932
▁INFORM	-10933
▁raised	-10934
▁ancient	-10935
▁约	-10936
分发	-10937
匈牙	-10938
迪拜	-10939
udi	-10940
匈牙利	-10941
未来的	-10942
的研究	-10943
让我们	-10944
sych	-10945
▁19,	-10946
▁van	-10947
▁局部性	-10948
entine	-10949
Country	-10950
ocratic	-10951
▁Virgin	-10952
▁stated	-10953
▁elegant	-10954
▁concerned	-10955
▁inaccurate	-10956
▁incomplete	-10957
")	-10958
VR	-10959
vi	-10960
vo	-10961
不在	-10962
呈现	-10963
定位	-10964
拯救	-10965
死了	-10966
祭司	-10967
Bed	-10968
gor	-10969
▁他说	-10970
的一些	-10971
的一种	-10972
shan	-10973
▁Maps	-10974
▁Orig	-10975
▁tend	-10976
▁fruit	-10977
▁urban	-10978
▁winter	-10979
▁Dropbox	-10980
▁Tourism	-10981
▁manager	-10982
▁sharing	-10983
▁lighting	-10984
▁introduced	-10985
▁INFORMATION	-10986
Qu	-10987
▁男	-10988
同步	-10989
当中	-10990
斯林	-10991
每日	-10992
让人	-10993
运作	-10994
mel	-10995
▁主要	-10996
▁每日	-10997
交友业	-10998
地图上	-10999
furt	-11000
otic	-11001
▁(0)	-11002
▁吹风机	-11003
irates	-11004
▁login	-11005
▁noise	-11006
▁phase	-11007
▁tests	-11008
▁behalf	-11009
需要较新版本的	-11010
▁Boulevard	-11011
▁approximately	-11012
xi	-11013
主机	-11014
危机	-11015
液晶	-11016
视图	-11017
进程	-11018
逻辑	-11019
▁页面	-11020
不同意	-11021
gend	-11022
▁DAM	-11023
▁NXP	-11024
▁Coll	-11025
▁Innov	-11026
▁coord	-11027
Product	-11028
▁brands	-11029
▁clothes	-11030
▁leaving	-11031
▁expansion	-11032
▁principle	-11033
上的内容需要较新版本的	-11034
HC	-11035
好好	-11036
审判	-11037
权的	-11038
毕业	-11039
负担	-11040
道德	-11041
频率	-11042
▁还有	-11043
如果您	-11044
conf	-11045
prus	-11046
人民法院	-11047
当前情况	-11048
本网站的	-11049
▁Thai	-11050
▁Wars	-11051
▁Const	-11052
▁Women	-11053
▁sauna	-11054
▁Nature	-11055
▁hundreds	-11056
▁Secretary	-11057
▁Advertisement	-11058
km	-11059
优先	-11060
论文	-11061
饮食	-11062
▁它们	-11063
合适的	-11064
基金会	-11065
的感觉	-11066
行业的	-11067
▁该酒店的	-11068
的工作人员	-11069
实业有限公司	-11070
irected	-11071
▁nation	-11072
▁illegal	-11073
▁servers	-11074
En	-11075
TT	-11076
一份	-11077
协作	-11078
发电	-11079
演示	-11080
理石	-11081
看来	-11082
配合	-11083
黑暗	-11084
▁om	-11085
有可能	-11086
conn	-11087
emed	-11088
▁Bab	-11089
描述近似	-11090
EMFTR	-11091
▁posts	-11092
▁theme	-11093
描述近似翻译	-11094
▁Towels	-11095
▁sudden	-11096
▁amazing	-11097
▁removal	-11098
▁该酒店的描述近似翻译	-11099
91	-11100
▁向	-11101
▁哥	-11102
▁据	-11103
▁近	-11104
上传	-11105
啤酒	-11106
是指	-11107
激活	-11108
证券	-11109
还能	-11110
预算	-11111
▁许多	-11112
可用的	-11113
彼得堡	-11114
inct	-11115
▁Aff	-11116
▁Ram	-11117
▁squ	-11118
▁Cart	-11119
▁Foot	-11120
▁crim	-11121
intage	-11122
▁Athens	-11123
▁DATING	-11124
▁Sweden	-11125
▁Michael	-11126
▁controller	-11127
▁instructions	-11128
▁jurisdiction	-11129
▁subsidiaries	-11130
保罗	-11131
发明	-11132
报价	-11133
拉克	-11134
签署	-11135
织品	-11136
起的	-11137
还在	-11138
风暴	-11139
AIN	-11140
akh	-11141
▁6:	-11142
▁投选	-11143
可靠的	-11144
申请人	-11145
的旅游	-11146
itis	-11147
like	-11148
▁0.7	-11149
▁Bit	-11150
▁Tru	-11151
ordan	-11152
▁Fund	-11153
▁Situ	-11154
▁acts	-11155
▁shap	-11156
▁spent	-11157
▁gather	-11158
▁Downtown	-11159
▁Training	-11160
▁historic	-11161
▁mentioned	-11162
▁termination	-11163
乐园	-11164
投诉	-11165
美景	-11166
英寸	-11167
间的	-11168
aki	-11169
boa	-11170
tec	-11171
▁标签	-11172
成功的	-11173
本作品	-11174
要求的	-11175
holm	-11176
▁Flo	-11177
odies	-11178
▁FREE	-11179
▁Sofa	-11180
▁diss	-11181
▁rang	-11182
▁tube	-11183
▁Jiang	-11184
▁Order	-11185
▁Third	-11186
▁flash	-11187
反映当前情况	-11188
▁pieces	-11189
▁police	-11190
▁投选你的喜爱	-11191
▁Deutsch	-11192
▁Smoking	-11193
▁Society	-11194
▁patient	-11195
▁Canadian	-11196
▁Festival	-11197
▁indemnify	-11198
伟大	-11199
感受	-11200
海外	-11201
调用	-11202
边缘	-11203
/10	-11204
ISO	-11205
bul	-11206
▁Gh	-11207
形式的	-11208
▁11.	-11209
▁Exp	-11210
▁xxx	-11211
▁fiber	-11212
▁carbon	-11213
▁authent	-11214
▁context	-11215
▁塞	-11216
手指	-11217
排除	-11218
营业	-11219
财政	-11220
▁TER	-11221
ifies	-11222
▁Fast	-11223
▁Poly	-11224
▁Wire	-11225
▁fant	-11226
▁kill	-11227
▁简体中文	-11228
agraph	-11229
▁attor	-11230
▁plate	-11231
▁river	-11232
verseas	-11233
▁Marina	-11234
▁divers	-11235
▁filled	-11236
▁Camping	-11237
▁Orlando	-11238
▁Railway	-11239
▁cooling	-11240
▁updates	-11241
▁conversion	-11242
▁exhibition	-11243
下午	-11244
丹麦	-11245
各自	-11246
度和	-11247
很大	-11248
波兰	-11249
电气	-11250
纳入	-11251
蒙特	-11252
起了	-11253
oga	-11254
▁开发	-11255
分辨率	-11256
穆斯林	-11257
▁1.1	-11258
▁sit	-11259
▁Ward	-11260
▁onto	-11261
▁visa	-11262
▁为了获得	-11263
▁Guang	-11264
▁withd	-11265
▁Dublin	-11266
▁PRODUCT	-11267
▁compens	-11268
▁SERVICES	-11269
▁facility	-11270
▁recently	-11271
▁challenge	-11272
▁certificate	-11273
▁此页面上的内容需要较新版本的	-11274
GP	-11275
下面	-11276
回收	-11277
燃料	-11278
▁/>	-11279
▁Il	-11280
▁mi	-11281
▁保护	-11282
一定要	-11283
你必须	-11284
amps	-11285
▁Ling	-11286
▁软件构架	-11287
▁DAMAG	-11288
▁Living	-11289
ferences	-11290
▁visited	-11291
La	-11292
一段	-11293
为你	-11294
你想	-11295
协商	-11296
参见	-11297
呼吸	-11298
回应	-11299
布尔	-11300
批发	-11301
来看	-11302
眼前	-11303
终端	-11304
▁05	-11305
▁53	-11306
▁Ka	-11307
▁城市	-11308
▁每个	-11309
环境中	-11310
Work	-11311
alia	-11312
name	-11313
▁2.0	-11314
▁Tam	-11315
▁fif	-11316
本协议的	-11317
arrow	-11318
icked	-11319
illas	-11320
itled	-11321
rogen	-11322
ulous	-11323
▁Core	-11324
▁Mand	-11325
▁rose	-11326
▁ahead	-11327
▁equal	-11328
▁profit	-11329
▁feedback	-11330
▁username	-11331
▁platforms	-11332
AA	-11333
DG	-11334
恐怖	-11335
斯顿	-11336
电流	-11337
破碎	-11338
biz	-11339
▁UC	-11340
带来的	-11341
并提供	-11342
▁Bag	-11343
adise	-11344
power	-11345
under	-11346
▁Minh	-11347
▁Sexy	-11348
▁bond	-11349
▁valu	-11350
▁valve	-11351
CLUDING	-11352
▁backup	-11353
▁figure	-11354
▁extract	-11355
▁Cultural	-11356
▁displays	-11357
▁whatever	-11358
▁Construction	-11359
EY	-11360
不用	-11361
依法	-11362
在您	-11363
婚姻	-11364
广播	-11365
成熟	-11366
行程	-11367
-14	-11368
10,	-11369
ASS	-11370
awa	-11371
▁自动	-11372
了起来	-11373
信息和	-11374
基督的	-11375
干什么	-11376
adow	-11377
▁ice	-11378
▁raw	-11379
▁surv	-11380
▁个酒店在	-11381
▁deriv	-11382
▁factory	-11383
-6	-11384
zy	-11385
名单	-11386
总裁	-11387
插入	-11388
着他	-11389
约定	-11390
警告	-11391
ema	-11392
▁(1	-11393
▁MS	-11394
▁描述	-11395
▁经济	-11396
新西兰	-11397
过去的	-11398
lett	-11399
▁13.	-11400
▁uns	-11401
专业人士	-11402
▁Carl	-11403
▁Linen	-11404
▁Cyprus	-11405
▁stable	-11406
▁Heating	-11407
▁Assembly	-11408
▁familiar	-11409
▁majority	-11410
▁transmit	-11411
▁frequency	-11412
▁categories	-11413
03	-11414
1⁄	-11415
▁尼	-11416
▁谁	-11417
在你	-11418
晚餐	-11419
氛围	-11420
深刻	-11421
谢谢	-11422
走到	-11423
▁cd	-11424
中心的	-11425
的国际	-11426
的实时	-11427
的用户	-11428
的第一	-11429
erto	-11430
rapy	-11431
umps	-11432
▁Edit	-11433
▁root	-11434
▁Laser	-11435
▁Night	-11436
▁alloy	-11437
▁cheap	-11438
▁Argent	-11439
▁transp	-11440
▁aspects	-11441
▁Hairdryer	-11442
▁authorized	-11443
▁alternative	-11444
▁intelligent	-11445
▁利	-11446
一代	-11447
培养	-11448
对我	-11449
模特	-11450
毫无	-11451
潜水	-11452
管道	-11453
AIL	-11454
▁GL	-11455
▁加入	-11456
▁阿尔	-11457
是为了	-11458
rite	-11459
oviet	-11460
stone	-11461
▁rain	-11462
▁了解更多	-11463
▁layer	-11464
▁movie	-11465
▁causes	-11466
▁Romania	-11467
估计	-11468
信任	-11469
合物	-11470
失去	-11471
少年	-11472
心脏	-11473
指标	-11474
节目	-11475
遇到	-11476
▁8,	-11477
▁9,	-11478
▁IC	-11479
姆斯特	-11480
的地区	-11481
agen	-11482
eous	-11483
▁bow	-11484
▁buff	-11485
▁vast	-11486
▁glory	-11487
▁breath	-11488
94	-11489
fu	-11490
▁q	-11491
▁青	-11492
上升	-11493
侵害	-11494
天堂	-11495
景观	-11496
洗碗	-11497
装备	-11498
-18	-11499
hot	-11500
rat	-11501
▁FL	-11502
▁花园	-11503
jpeg	-11504
▁Bra	-11505
住宿地方	-11506
racle	-11507
speed	-11508
visit	-11509
▁Cheng	-11510
▁Forex	-11511
▁Train	-11512
▁animals	-11513
▁desktop	-11514
▁explain	-11515
▁warranty	-11516
▁Indonesia	-11517
2]	-11518
97	-11519
▁后	-11520
不了	-11521
古老	-11522
吩咐	-11523
投票	-11524
服装	-11525
bel	-11526
▁57	-11527
▁冰箱	-11528
▁移动	-11529
eras	-11530
▁Pak	-11531
▁rom	-11532
▁sen	-11533
arters	-11534
▁forum	-11535
▁Forest	-11536
▁solely	-11537
▁holding	-11538
▁minibar	-11539
▁realize	-11540
▁occasion	-11541
▁revolution	-11542
▁connections	-11543
▁长	-11544
做到	-11545
加速	-11546
十四	-11547
条例	-11548
节点	-11549
记住	-11550
edy	-11551
enz	-11552
▁Mu	-11553
笔记本	-11554
Tube	-11555
aron	-11556
▁Conc	-11557
▁Rent	-11558
▁Sams	-11559
▁tags	-11560
▁阅读关于	-11561
▁resol	-11562
▁risks	-11563
▁superv	-11564
和乘客船票往返	-11565
▁Diamond	-11566
▁Greater	-11567
▁ensures	-11568
▁nuclear	-11569
kl	-11570
一项	-11571
学会	-11572
沙滩	-11573
辅助	-11574
USB	-11575
▁毛巾	-11576
roud	-11577
▁0.9	-11578
▁Bad	-11579
▁Lux	-11580
▁enh	-11581
▁net	-11582
其中包括	-11583
quets	-11584
▁FROM	-11585
liance	-11586
▁linked	-11587
▁Writing	-11588
▁properly	-11589
▁versions	-11590
▁Production	-11591
▁Registration	-11592
他就	-11593
强大	-11594
马上	-11595
ALS	-11596
ANS	-11597
▁Gi	-11598
▁星期	-11599
的质量	-11600
asse	-11601
▁新加坡	-11602
hered	-11603
ounds	-11604
▁butt	-11605
▁sche	-11606
▁song	-11607
▁平板电视	-11608
acters	-11609
▁trees	-11610
▁Action	-11611
▁classes	-11612
▁willing	-11613
▁在线安全请使用	-11614
▁disciples	-11615
++	-11616
dy	-11617
凤凰	-11618
受益	-11619
条约	-11620
每次	-11621
IST	-11622
php	-11623
you	-11624
▁ES	-11625
▁Ty	-11626
▁研究	-11627
应用于	-11628
▁18,	-11629
铁艺大门	-11630
idity	-11631
uster	-11632
▁Exam	-11633
▁Mini	-11634
▁Rose	-11635
▁bars	-11636
▁cris	-11637
明示或暗示	-11638
incess	-11639
▁Heart	-11640
▁interior	-11641
▁pleasure	-11642
▁reception	-11643
▁instruments	-11644
▁Introduction	-11645
81	-11646
FF	-11647
刚刚	-11648
彻底	-11649
意的	-11650
给您	-11651
Che	-11652
bre	-11653
nic	-11654
ups	-11655
▁SO	-11656
以确保	-11657
引起的	-11658
法律的	-11659
的设施	-11660
编辑器	-11661
请点击	-11662
需要的	-11663
greg	-11664
inar	-11665
ping	-11666
ustr	-11667
▁Lot	-11668
▁milk	-11669
的住宿地方	-11670
asting	-11671
earing	-11672
vation	-11673
▁Metal	-11674
▁amend	-11675
▁Device	-11676
▁Sunday	-11677
▁INDUSTRY	-11678
▁Partners	-11679
▁accounts	-11680
▁Distribut	-11681
也要	-11682
先前	-11683
各类	-11684
彼此	-11685
态度	-11686
把它	-11687
振动	-11688
有机	-11689
/1/	-11690
▁0,	-11691
ECTR	-11692
rang	-11693
skin	-11694
▁fan	-11695
▁建议在	-11696
ospit	-11697
▁magn	-11698
▁plus	-11699
▁shut	-11700
▁weap	-11701
车客渡船票	-11702
▁Title	-11703
▁radio	-11704
▁sorry	-11705
▁venue	-11706
▁abroad	-11707
▁desire	-11708
▁performed	-11709
▁functionality	-11710
▁答	-11711
从未	-11712
容量	-11713
床间	-11714
总部	-11715
是谁	-11716
-53	-11717
IPO	-11718
iva	-11719
lee	-11720
▁Som	-11721
▁活动在	-11722
的可能性	-11723
▁Manc	-11724
▁laid	-11725
和预订船票	-11726
我们的服务	-11727
损失或损毁	-11728
▁pursu	-11729
▁compar	-11730
▁forget	-11731
▁follows	-11732
▁obvious	-11733
▁foundation	-11734
易于	-11735
赫尔	-11736
说什么	-11737
清洁服务	-11738
imize	-11739
交友业大会	-11740
etails	-11741
▁height	-11742
▁favorites	-11743
▁commitment	-11744
▁maintaining	-11745
▁specifically	-11746
▁瓦	-11747
作业	-11748
副本	-11749
动画	-11750
器件	-11751
大号	-11752
战斗	-11753
漏洞	-11754
西洋	-11755
▁专业	-11756
布拉格	-11757
所提供	-11758
摄像头	-11759
有限的	-11760
hand	-11761
▁Cop	-11762
▁Dyn	-11763
▁适用于	-11764
riven	-11765
▁band	-11766
washer	-11767
▁Pract	-11768
▁academ	-11769
exclusive	-11770
▁Delivery	-11771
▁allowing	-11772
▁interpret	-11773
▁Statistics	-11774
▁controlled	-11775
▁personally	-11776
▁improvement	-11777
▁云	-11778
印象	-11779
尿病	-11780
烧烤	-11781
缓存	-11782
营养	-11783
记得	-11784
LTD	-11785
OOD	-11786
侯龙涛	-11787
取得了	-11788
的需求	-11789
糖尿病	-11790
onde	-11791
▁Vac	-11792
▁Wat	-11793
▁jew	-11794
▁Matt	-11795
▁Muslim	-11796
▁alumin	-11797
▁silver	-11798
▁Compare	-11799
▁savings	-11800
▁assembly	-11801
▁relation	-11802
▁appearance	-11803
▁consistent	-11804
▁effectively	-11805
▁transmitted	-11806
DL	-11807
HA	-11808
PP	-11809
发的	-11810
bin	-11811
▁就是	-11812
▁怎么	-11813
办事处	-11814
太平洋	-11815
ifed	-11816
▁Far	-11817
▁www	-11818
公寓位于	-11819
▁Barb	-11820
▁Zone	-11821
▁golf	-11822
▁iPad	-11823
▁female	-11824
▁formed	-11825
▁played	-11826
▁offices	-11827
▁bathrooms	-11828
▁proportion	-11829
hr	-11830
乘坐	-11831
便捷	-11832
化工	-11833
场景	-11834
成分	-11835
色彩	-11836
金额	-11837
ois	-11838
wan	-11839
▁不管	-11840
了一些	-11841
我们不	-11842
的功能	-11843
asty	-11844
▁ign	-11845
▁pip	-11846
▁rul	-11847
▁($30	-11848
▁lies	-11849
▁Chair	-11850
▁Right	-11851
▁Soviet	-11852
▁confir	-11853
▁indoor	-11854
▁strugg	-11855
▁选择你的喜爱	-11856
ishwasher	-11857
▁greatest	-11858
▁province	-11859
▁Refrigerator	-11860
MF	-11861
cm	-11862
人才	-11863
传递	-11864
和我	-11865
小组	-11866
工人	-11867
成长	-11868
手续	-11869
文学	-11870
水壶	-11871
神经	-11872
转变	-11873
输送	-11874
▁公里	-11875
▁其实	-11876
▁沙发	-11877
▁管理	-11878
意识到	-11879
我们也	-11880
指定的	-11881
特殊的	-11882
的活动	-11883
遵守本	-11884
▁Farm	-11885
▁Pier	-11886
▁liter	-11887
▁drives	-11888
▁Results	-11889
▁Computer	-11890
▁controls	-11891
▁contemporary	-11892
2/	-11893
DW	-11894
NY	-11895
oT	-11896
▁及	-11897
出生	-11898
十八	-11899
四个	-11900
税务	-11901
询问	-11902
预定	-11903
使用或	-11904
很容易	-11905
最近的	-11906
ENCE	-11907
quis	-11908
▁fig	-11909
▁joy	-11910
▁spl	-11911
▁Dani	-11912
raulic	-11913
▁Carol	-11914
▁meant	-11915
unction	-11916
▁slowly	-11917
▁thread	-11918
查询和预订汽车	-11919
▁Meeting	-11920
▁Available	-11921
▁recognized	-11922
▁refrigerator	-11923
iP	-11924
▁即	-11925
▁明	-11926
▁艾	-11927
▁车	-11928
优点	-11929
很难	-11930
思考	-11931
放置	-11932
演讲	-11933
遵循	-11934
asy	-11935
▁56	-11936
▁ax	-11937
▁非常	-11938
大首选	-11939
是因为	-11940
未找到	-11941
款规定	-11942
的网站	-11943
运营商	-11944
错误的	-11945
Link	-11946
coin	-11947
▁Roc	-11948
▁Cath	-11949
▁Jess	-11950
▁sons	-11951
的解决方案	-11952
▁hosts	-11953
▁Geneva	-11954
▁survey	-11955
▁visits	-11956
▁demands	-11957
▁dispute	-11958
▁Password	-11959
▁affected	-11960
▁believed	-11961
▁stations	-11962
▁procedure	-11963
3]	-11964
列车	-11965
延长	-11966
成人	-11967
是从	-11968
权力	-11969
消失	-11970
百姓	-11971
All	-11972
HCT	-11973
▁Xi	-11974
▁推荐	-11975
的行为	-11976
获得了	-11977
请参阅	-11978
ears	-11979
orer	-11980
plex	-11981
▁Pot	-11982
▁ROC	-11983
Point	-11984
▁Both	-11985
▁THAT	-11986
▁porn	-11987
▁cycle	-11988
orizont	-11989
▁philos	-11990
▁prison	-11991
▁Storage	-11992
▁enjoyed	-11993
▁collaboration	-11994
FL	-11995
▁吉	-11996
写作	-11997
博彩	-11998
在她	-11999
密度	-12000
布局	-12001
库存	-12002
手动	-12003
WOR	-12004
▁99	-12005
▁作者	-12006
客户端	-12007
董事会	-12008
Cent	-12009
anny	-12010
▁WEB	-12011
会员注册	-12012
使用您的	-12013
▁bottle	-12014
▁lounge	-12015
▁Unclass	-12016
▁investig	-12017
▁marriage	-12018
▁meetings	-12019
▁payments	-12020
▁seasonal	-12021
▁affordable	-12022
债务	-12023
双手	-12024
广东	-12025
成的	-12026
日至	-12027
还会	-12028
aft	-12029
▁产地	-12030
告诉你	-12031
线渡轮	-12032
asma	-12033
▁Bol	-12034
▁Kam	-12035
▁wor	-12036
国家公园	-12037
布达佩斯	-12038
▁Dial	-12039
▁busy	-12040
▁ride	-12041
▁客房设施	-12042
对您或任何	-12043
utical	-12044
▁Legal	-12045
▁teach	-12046
looking	-12047
▁Little	-12048
▁joined	-12049
▁Members	-12050
▁earlier	-12051
▁decisions	-12052
▁Unclassifed	-12053
IJ	-12054
之处	-12055
冠军	-12056
北部	-12057
将是	-12058
离子	-12059
花束	-12060
财富	-12061
逐渐	-12062
bet	-12063
oom	-12064
rov	-12065
▁找到	-12066
特定的	-12067
的选择	-12068
维加斯	-12069
▁Bes	-12070
▁iOS	-12071
游览图片	-12072
▁2004	-12073
▁Feed	-12074
▁Jane	-12075
▁OTHER	-12076
▁untrue	-12077
▁寻找更多关于	-12078
▁Premier	-12079
▁managed	-12080
▁nations	-12081
▁incurred	-12082
▁indicate	-12083
▁neighbor	-12084
▁reserved	-12085
▁confidence	-12086
▁supporting	-12087
▁programming	-12088
0,	-12089
RI	-12090
ón	-12091
出席	-12092
可供	-12093
回家	-12094
地面	-12095
想象	-12096
手术	-12097
沏茶	-12098
炉灶	-12099
而不	-12100
萨斯	-12101
aze	-12102
▁上帝	-12103
准确的	-12104
用餐区	-12105
这一切	-12106
造成的	-12107
ophy	-12108
▁葡萄牙	-12109
姆斯特丹	-12110
▁taxi	-12111
apping	-12112
▁Ether	-12113
liament	-12114
ossible	-12115
▁Script	-12116
▁rating	-12117
▁retain	-12118
▁Stadium	-12119
▁Theatre	-12120
▁florist	-12121
▁($30-250	-12122
▁Analysis	-12123
▁Document	-12124
▁incident	-12125
▁respective	-12126
▁transactions	-12127
▁professionals	-12128
oa	-12129
俯瞰	-12130
做法	-12131
十三	-12132
口气	-12133
容器	-12134
提醒	-12135
最初	-12136
犹大	-12137
随后	-12138
130	-12139
Man	-12140
Net	-12141
rey	-12142
犹太人	-12143
的最大	-12144
高品质	-12145
iest	-12146
汽车旅馆	-12147
stein	-12148
▁holy	-12149
▁killed	-12150
▁prohib	-12151
▁channel	-12152
▁approval	-12153
▁negative	-12154
▁representatives	-12155
MM	-12156
▁直	-12157
也在	-12158
期望	-12159
者和	-12160
转到	-12161
aga	-12162
wik	-12163
▁CC	-12164
▁历史	-12165
▁浴缸	-12166
▁进口	-12167
产品和	-12168
标准的	-12169
酒店是	-12170
home	-12171
▁1.6	-12172
icons	-12173
▁Tube	-12174
armace	-12175
▁older	-12176
iration	-12177
▁Region	-12178
▁Thomas	-12179
▁disapp	-12180
▁retrie	-12181
friendly	-12182
▁Graphic	-12183
▁compact	-12184
▁happens	-12185
▁witness	-12186
▁Radisson	-12187
ScriptResource	-12188
书籍	-12189
克拉	-12190
地的	-12191
橡胶	-12192
餐桌	-12193
▁(4	-12194
▁Fa	-12195
▁首先	-12196
向我们	-12197
的机会	-12198
iece	-12199
jing	-12200
▁10:	-12201
▁3.5	-12202
▁游泳池	-12203
整个英国	-12204
paper	-12205
▁Wish	-12206
▁Yang	-12207
Sphere	-12208
anical	-12209
▁decre	-12210
▁tasks	-12211
▁chosen	-12212
▁Culture	-12213
▁Premium	-12214
▁Accommod	-12215
▁Statement	-12216
▁Components	-12217
下了	-12218
加上	-12219
后果	-12220
多样	-12221
展开	-12222
嵌入	-12223
熟悉	-12224
生效	-12225
245	-12226
IFI	-12227
kay	-12228
▁59	-12229
▁暖气	-12230
▁洗衣	-12231
季节性	-12232
的家庭	-12233
过滤器	-12234
都没有	-12235
ovet	-12236
utch	-12237
▁10,	-12238
▁Ban	-12239
作为一个	-12240
▁Lane	-12241
▁分钟车程	-12242
▁这间公寓	-12243
isters	-12244
▁Level	-12245
▁Total	-12246
▁leads	-12247
▁Instant	-12248
▁Heritage	-12249
▁translate	-12250
aS	-12251
▁张	-12252
其余	-12253
恶意	-12254
玫瑰	-12255
警察	-12256
首都	-12257
-19	-12258
发动机	-12259
在中亚	-12260
设计和	-12261
还提供	-12262
ourg	-12263
umer	-12264
▁Cry	-12265
▁Hub	-12266
▁amb	-12267
使您能够	-12268
马来西亚	-12269
angel	-12270
拉斯维加斯	-12271
▁alter	-12272
▁empty	-12273
▁Empire	-12274
▁grounds	-12275
▁listing	-12276
▁shuttle	-12277
▁typical	-12278
▁characters	-12279
▁constantly	-12280
armaceutical	-12281
不知	-12282
了吧	-12283
今日	-12284
元件	-12285
充电	-12286
协定	-12287
变量	-12288
在其	-12289
明的	-12290
是你	-12291
线的	-12292
诸如	-12293
HER	-12294
Pay	-12295
ROU	-12296
▁5*	-12297
▁Pa	-12298
News	-12299
card	-12300
made	-12301
▁cup	-12302
设施包括	-12303
ennis	-12304
▁Unic	-12305
▁grace	-12306
▁knows	-12307
▁sizes	-12308
▁teams	-12309
▁render	-12310
▁Charles	-12311
▁quarter	-12312
▁smaller	-12313
ibilities	-12314
▁vacation	-12315
▁consumers	-12316
▁remaining	-12317
▁Commercial	-12318
▁preparation	-12319
▁significantly	-12320
上去	-12321
利福	-12322
十六	-12323
学术	-12324
家族	-12325
润滑	-12326
Log	-12327
OST	-12328
aug	-12329
▁(5	-12330
▁生产	-12331
活动的	-12332
anka	-12333
enos	-12334
▁20,	-12335
▁Cut	-12336
▁Hyd	-12337
▁bon	-12338
▁dig	-12339
▁ran	-12340
▁Insp	-12341
▁最多人数	-12342
seeing	-12343
▁estim	-12344
▁guard	-12345
rection	-12346
▁Should	-12347
▁wealth	-12348
▁Seating	-12349
▁Chemical	-12350
▁submitted	-12351
▁obligations	-12352
gi	-12353
▁九	-12354
▁热	-12355
▁重	-12356
荣誉	-12357
黑色	-12358
OSE	-12359
cor	-12360
可能的	-12361
告诉我	-12362
宽敞的	-12363
是非常	-12364
适用的	-12365
▁Ped	-12366
▁交友和	-12367
没有任何	-12368
▁Chan	-12369
▁Lead	-12370
▁Self	-12371
▁iPod	-12372
amburg	-12373
▁gifts	-12374
▁Dragon	-12375
▁Turkey	-12376
▁losses	-12377
▁pixels	-12378
▁prayer	-12379
▁helping	-12380
▁housing	-12381
▁premium	-12382
▁achieved	-12383
▁Knowledge	-12384
▁automated	-12385
▁Manufacturing	-12386
AU	-12387
Gl	-12388
▁山	-12389
▁福	-12390
南部	-12391
或与	-12392
掌握	-12393
显然	-12394
珠宝	-12395
进来	-12396
ARE	-12397
bis	-12398
▁一旦	-12399
▁无法	-12400
icit	-12401
▁2.4	-12402
▁Ele	-12403
▁Hou	-12404
▁Pur	-12405
▁Sud	-12406
特定用途	-12407
riter	-12408
rival	-12409
▁mine	-12410
▁Catal	-12411
▁Hills	-12412
▁房间的大小	-12413
▁charges	-12414
▁consists	-12415
▁收	-12416
予以	-12417
事故	-12418
周边	-12419
夏季	-12420
必需	-12421
或从	-12422
首席	-12423
马尔	-12424
OUT	-12425
ZIP	-12426
asm	-12427
aus	-12428
▁2)	-12429
▁她的	-12430
▁除非	-12431
或使用	-12432
ingu	-12433
oves	-12434
▁lit	-12435
社会主义	-12436
▁Need	-12437
▁Pict	-12438
▁THIS	-12439
stract	-12440
▁Jordan	-12441
▁Python	-12442
▁decide	-12443
▁License	-12444
▁Looking	-12445
▁applies	-12446
▁conscious	-12447
▁Automation	-12448
一同	-12449
不受	-12450
人间	-12451
无限	-12452
留在	-12453
缺陷	-12454
亿美元	-12455
Euro	-12456
▁NAS	-12457
▁Wil	-12458
▁hop	-12459
或以其他	-12460
inces	-12461
night	-12462
▁boot	-12463
▁酒店距离	-12464
cluded	-12465
hotels	-12466
▁lived	-12467
amental	-12468
itution	-12469
▁dating	-12470
▁compatible	-12471
▁Philippines	-12472
▁transferred	-12473
子里	-12474
抽烟	-12475
教练	-12476
物料	-12477
良好	-12478
hus	-12479
▁Yu	-12480
▁捷克	-12481
▁豪华	-12482
aton	-12483
pool	-12484
▁ACC	-12485
▁SCH	-12486
▁Typ	-12487
▁gro	-12488
▁联合国	-12489
设有一个	-12490
state	-12491
▁legs	-12492
▁vari	-12493
Google	-12494
▁grants	-12495
▁hereby	-12496
▁seeing	-12497
▁undert	-12498
▁Outlook	-12499
▁Situated	-12500
▁approved	-12501
▁Guesthouse	-12502
▁guidelines	-12503
▁competitive	-12504
丁堡	-12505
临时	-12506
会被	-12507
区别	-12508
原理	-12509
杭州	-12510
某种	-12511
简称	-12512
谈判	-12513
高潮	-12514
-17	-12515
10.	-12516
Are	-12517
asa	-12518
uls	-12519
▁它是	-12520
▁需要	-12521
大理石	-12522
旅行者	-12523
arma	-12524
▁1.3	-12525
▁Wei	-12526
▁tor	-12527
▁wet	-12528
▁卫生间	-12529
您的资料	-12530
▁Pers	-12531
▁youth	-12532
▁Branch	-12533
▁Visual	-12534
▁cancel	-12535
▁Hangzhou	-12536
▁Frankfurt	-12537
▁Permanent	-12538
▁accessories	-12539
久的	-12540
卡斯	-12541
在一	-12542
害怕	-12543
床位	-12544
独家	-12545
美术	-12546
追求	-12547
vit	-12548
▁亚麻	-12549
到您的	-12550
或间接	-12551
最低的	-12552
进行的	-12553
▁160	-12554
▁dee	-12555
▁fed	-12556
门票价格	-12557
chron	-12558
otten	-12559
stood	-12560
▁diet	-12561
▁neck	-12562
齐全的厨房	-12563
▁divid	-12564
▁renov	-12565
企业有限公司	-12566
▁trends	-12567
▁acceler	-12568
▁flights	-12569
▁focused	-12570
▁bearings	-12571
▁incorpor	-12572
▁architect	-12573
▁Dictionary	-12574
▁derivative	-12575
▁Performance	-12576
▁specifications	-12577
6:	-12578
夫人	-12579
庆祝	-12580
素贞	-12581
股票	-12582
胡志	-12583
菲律	-12584
超级	-12585
适销	-12586
alm	-12587
hew	-12588
ifi	-12589
ipt	-12590
lut	-12591
▁SY	-12592
▁Ts	-12593
▁客厅	-12594
▁查询	-12595
发生了	-12596
您可能	-12597
bank	-12598
▁在这里	-12599
▁所有的	-12600
▁酒店的	-12601
▁Mill	-12602
▁coat	-12603
的分销网络	-12604
▁Solid	-12605
▁Their	-12606
▁Zhong	-12607
▁dryer	-12608
▁worry	-12609
▁家庭式酒店	-12610
你自己的语言	-12611
▁Gardens	-12612
▁circuit	-12613
▁coating	-12614
▁bouquets	-12615
▁framework	-12616
▁reproduce	-12617
▁electronics	-12618
▁七	-12619
兰卡	-12620
如今	-12621
安保	-12622
宝石	-12623
将于	-12624
就不	-12625
提取	-12626
毫米	-12627
深度	-12628
Col	-12629
Don	-12630
▁SL	-12631
唯一的	-12632
基督教	-12633
安全性	-12634
▁14.	-12635
▁PUR	-12636
▁Sri	-12637
▁reb	-12638
客户服务	-12639
有所不同	-12640
:4.6.	-12641
aptop	-12642
ppers	-12643
▁Text	-12644
▁mort	-12645
▁Image	-12646
▁doubt	-12647
▁newsp	-12648
aration	-12649
▁Americ	-12650
▁Centro	-12651
▁Monday	-12652
▁trouble	-12653
▁clothing	-12654
▁promotion	-12655
▁expression	-12656
的分销网络提供预订超过	-12657
查询和预订汽车和乘客船票往返	-12658
On	-12659
利的	-12660
国民	-12661
小心	-12662
我会	-12663
照顾	-12664
种植	-12665
进步	-12666
280	-12667
ANY	-12668
和他的	-12669
必须在	-12670
更好地	-12671
着她的	-12672
菲律宾	-12673
mond	-12674
▁tom	-12675
现代化的	-12676
table	-12677
▁Corn	-12678
▁Hire	-12679
▁Pent	-12680
▁Such	-12681
making	-12682
uction	-12683
▁Solar	-12684
▁apart	-12685
客房清洁服务	-12686
▁arrive	-12687
▁escape	-12688
▁saving	-12689
▁starts	-12690
▁Testing	-12691
▁centers	-12692
▁depends	-12693
▁facilit	-12694
▁records	-12695
分支	-12696
十年	-12697
另有	-12698
摩西	-12699
瓷砖	-12700
紧凑	-12701
练习	-12702
脚本	-12703
采集	-12704
ori	-12705
▁Om	-12706
▁商店	-12707
▁快递	-12708
数据的	-12709
长时间	-12710
fers	-12711
▁Hon	-12712
▁深圳市	-12713
提供一个	-12714
▁Opera	-12715
▁Speed	-12716
▁附近的酒店	-12717
ATIONAL	-12718
▁Broker	-12719
▁Oracle	-12720
▁stayed	-12721
▁Harbour	-12722
▁servant	-12723
▁offerings	-12724
▁paragraph	-12725
▁sensitive	-12726
▁automotive	-12727
▁constitute	-12728
▁specialist	-12729
船票在任何其他旅游经营者	-12730
▁documentation	-12731
VI	-12732
乡村	-12733
判断	-12734
后续	-12735
玩具	-12736
的光	-12737
蒸汽	-12738
arp	-12739
eli	-12740
uid	-12741
▁LC	-12742
得到了	-12743
烤面包	-12744
组织的	-12745
phas	-12746
▁row	-12747
对本网站	-12748
搜索结果	-12749
annes	-12750
login	-12751
▁2003	-12752
▁Menu	-12753
▁Qing	-12754
ateral	-12755
bedded	-12756
▁doors	-12757
▁Joseph	-12758
▁finger	-12759
▁learned	-12760
▁predict	-12761
▁replied	-12762
▁Importer	-12763
▁relationships	-12764
▁里	-12765
交互	-12766
仆人	-12767
倘若	-12768
做好	-12769
共有	-12770
存放	-12771
宿舍	-12772
戒指	-12773
米兰	-12774
表情	-12775
:16	-12776
run	-12777
▁DI	-12778
▁Ga	-12779
胡志明	-12780
tein	-12781
▁1.8	-12782
▁Haw	-12783
▁MAT	-12784
▁Sel	-12785
因您违反	-12786
eless	-12787
heast	-12788
irror	-12789
▁Baby	-12790
▁Hold	-12791
▁race	-12792
active	-12793
▁Audio	-12794
▁Multi	-12795
▁Offer	-12796
▁raise	-12797
▁Things	-12798
▁movies	-12799
▁Pendant	-12800
▁decline	-12801
▁speaking	-12802
▁personnel	-12803
▁outstanding	-12804
?'	-12805
BB	-12806
fs	-12807
ju	-12808
之下	-12809
优雅	-12810
公平	-12811
基因	-12812
天使	-12813
心中	-12814
指令	-12815
挪威	-12816
提及	-12817
祝福	-12818
风扇	-12819
olk	-12820
▁我要	-12821
▁查找	-12822
找不到	-12823
ench	-12824
▁Eff	-12825
▁HPE	-12826
▁Ice	-12827
联系我们	-12828
▁Kids	-12829
▁east	-12830
▁suit	-12831
abling	-12832
anners	-12833
▁Basic	-12834
▁Sound	-12835
▁solve	-12836
ivalent	-12837
▁ELECTR	-12838
▁holder	-12839
▁motion	-12840
▁biggest	-12841
▁classic	-12842
▁keeping	-12843
▁opinion	-12844
▁constant	-12845
▁extended	-12846
▁improving	-12847
▁righteous	-12848
▁leadership	-12849
▁electricity	-12850
TB	-12851
临床	-12852
全权	-12853
兰克	-12854
密切	-12855
很少	-12856
是要	-12857
简化	-12858
/11	-12859
rob	-12860
▁Hi	-12861
▁ru	-12862
▁拥有	-12863
▁电影	-12864
下面的	-12865
休息室	-12866
伦比亚	-12867
克斯坦	-12868
和同意	-12869
艺术家	-12870
bury	-12871
uits	-12872
▁Mix	-12873
▁alt	-12874
▁Gran	-12875
▁Stan	-12876
▁snow	-12877
▁Large	-12878
▁Upper	-12879
▁absor	-12880
▁brain	-12881
▁reput	-12882
▁Active	-12883
▁adding	-12884
分钟的步行路程	-12885
▁curtain	-12886
▁perhaps	-12887
▁Hospital	-12888
▁INCLUDING	-12889
▁conducted	-12890
▁investors	-12891
▁licensors	-12892
▁communities	-12893
BO	-12894
▁条	-12895
不管	-12896
少数	-12897
市区	-12898
law	-12899
nik	-12900
▁DO	-12901
▁RS	-12902
▁pa	-12903
他们在	-12904
威尼斯	-12905
源代码	-12906
▁2.1	-12907
▁Jos	-12908
▁Ori	-12909
▁hit	-12910
▁tag	-12911
▁停车场	-12912
任何其他	-12913
▁Emer	-12914
▁Meth	-12915
▁Wine	-12916
ussels	-12917
▁Allah	-12918
▁Charl	-12919
▁Event	-12920
▁chief	-12921
▁Friday	-12922
▁Places	-12923
▁Puerto	-12924
▁stands	-12925
position	-12926
▁Unicode	-12927
▁electro	-12928
▁optical	-12929
▁smoking	-12930
▁expenses	-12931
▁launched	-12932
▁template	-12933
▁Cathedral	-12934
▁continues	-12935
▁encourage	-12936
▁purchased	-12937
▁subsequent	-12938
NE	-12939
人都	-12940
仪表	-12941
实惠	-12942
持有	-12943
更为	-12944
班车	-12945
见到	-12946
轨道	-12947
遭受	-12948
锻炼	-12949
ORE	-12950
▁LA	-12951
▁VR	-12952
▁有些	-12953
▁采用	-12954
东欧等	-12955
各样的	-12956
such	-12957
▁21,	-12958
▁Syn	-12959
▁Tub	-12960
▁Tun	-12961
这些信息	-12962
重要的是	-12963
iform	-12964
▁Twin	-12965
▁meat	-12966
▁shel	-12967
commun	-12968
▁Links	-12969
▁flesh	-12970
▁virus	-12971
▁crisis	-12972
▁cancell	-12973
▁passion	-12974
▁upgrade	-12975
▁Emirates	-12976
▁Motorola	-12977
▁applicant	-12978
▁operational	-12979
▁~	-12980
▁俄	-12981
会有	-12982
愉快	-12983
房价	-12984
浙江	-12985
用具	-12986
示例	-12987
老婆	-12988
240	-12989
TTP	-12990
aph	-12991
▁BO	-12992
▁SE	-12993
▁Wa	-12994
▁书桌	-12995
合理的	-12996
鲜花至	-12997
alid	-12998
away	-12999
▁Mai	-13000
▁Moo	-13001
▁Rub	-13002
▁wis	-13003
航空公司	-13004
ifest	-13005
▁Keep	-13006
▁maps	-13007
左侧的实时	-13008
ingers	-13009
▁celeb	-13010
▁scene	-13011
▁veget	-13012
▁快递鲜花至	-13013
超过整个英国	-13014
ocation	-13015
ovenant	-13016
▁animal	-13017
▁speech	-13018
▁symptoms	-13019
▁Relations	-13020
▁Australian	-13021
echnological	-13022
▁manufacture	-13023
▁transaction	-13024
▁在线安全请使用左侧的实时	-13025
▁起	-13026
厂家	-13027
大大	-13028
子上	-13029
律法	-13030
成绩	-13031
撰写	-13032
陶瓷	-13033
oly	-13034
▁立即	-13035
和休闲	-13036
用户名	-13037
2005	-13038
▁Ask	-13039
▁Cup	-13040
▁Hen	-13041
▁Nob	-13042
▁sch	-13043
▁第一百	-13044
侵权行为	-13045
机票预订	-13046
社交媒体	-13047
eness	-13048
▁bids	-13049
icipal	-13050
及其关联公司	-13051
▁Supply	-13052
▁tempor	-13053
Province	-13054
▁Cookies	-13055
▁streets	-13056
criptions	-13057
▁每日客房清洁服务	-13058
▁construct	-13059
▁personalize	-13060
Tr	-13061
ei	-13062
▁雅	-13063
主动	-13064
午餐	-13065
形象	-13066
得以	-13067
慕尼	-13068
报纸	-13069
石头	-13070
赛车	-13071
kin	-13072
zza	-13073
▁Ec	-13074
▁商务	-13075
▁高级	-13076
之日起	-13077
希尔顿	-13078
我们有	-13079
或其它	-13080
That	-13081
arin	-13082
oken	-13083
uese	-13084
▁(5)	-13085
▁1.4	-13086
▁Xin	-13087
利福尼亚	-13088
提供任何	-13089
onial	-13090
raine	-13091
▁1990	-13092
▁Anim	-13093
▁Band	-13094
▁Flex	-13095
▁Rout	-13096
▁argu	-13097
▁crow	-13098
▁nort	-13099
及其子公司	-13100
▁Broad	-13101
▁recip	-13102
轮渡预订表格	-13103
▁Akamai	-13104
▁reject	-13105
▁talent	-13106
▁governed	-13107
▁thoughts	-13108
▁tropical	-13109
▁交友和交友业大会	-13110
▁recognize	-13111
px	-13112
一只	-13113
不足	-13114
专为	-13115
农场	-13116
地说	-13117
对她	-13118
所述	-13119
消耗	-13120
:19	-13121
van	-13122
▁95	-13123
▁Op	-13124
▁zh	-13125
专注于	-13126
大教堂	-13127
技术和	-13128
的公司	-13129
dess	-13130
▁15-	-13131
▁Rot	-13132
▁tun	-13133
▁在这个	-13134
其他用户	-13135
aints	-13136
alled	-13137
space	-13138
▁Bali	-13139
▁bill	-13140
▁node	-13141
icking	-13142
▁Agent	-13143
▁Dream	-13144
▁Track	-13145
▁Value	-13146
▁guess	-13147
inating	-13148
▁plenty	-13149
▁showed	-13150
▁Request	-13151
▁Samsung	-13152
▁Without	-13153
▁reducing	-13154
▁terminal	-13155
Redirected	-13156
▁Materials	-13157
▁ourselves	-13158
▁tradition	-13159
MV	-13160
也很	-13161
姊妹	-13162
iko	-13163
▁品牌	-13164
▁淋浴	-13165
友好的	-13166
您不得	-13167
您需要	-13168
ango	-13169
raud	-13170
▁Mic	-13171
isers	-13172
oding	-13173
▁Iran	-13174
▁army	-13175
▁guid	-13176
▁中国在中亚	-13177
pective	-13178
▁Citrix	-13179
▁Inform	-13180
▁acquis	-13181
▁herein	-13182
▁unable	-13183
▁Partner	-13184
▁attacks	-13185
▁capable	-13186
▁creative	-13187
▁passengers	-13188
▁travelling	-13189
NG	-13190
ni	-13191
▁木	-13192
▁李	-13193
奥斯	-13194
就业	-13195
所谓	-13196
编号	-13197
缤客	-13198
Mon	-13199
Out	-13200
ims	-13201
▁Ji	-13202
▁衣柜	-13203
▁通常	-13204
理事会	-13205
left	-13206
ocks	-13207
▁Hat	-13208
▁aid	-13209
outer	-13210
▁Down	-13211
获取的任何	-13212
itutes	-13213
▁proud	-13214
▁Client	-13215
▁branch	-13216
▁helped	-13217
▁Explore	-13218
明示或暗示的保证	-13219
ervations	-13220
▁identity	-13221
▁Represent	-13222
▁generator	-13223
:2.0.50727.54	-13224
▁只	-13225
▁都	-13226
冲击	-13227
初始	-13228
导入	-13229
样式	-13230
玛丽	-13231
自主	-13232
键盘	-13233
▁id	-13234
▁是的	-13235
尼西亚	-13236
数字化	-13237
相应的	-13238
管理和	-13239
联系人	-13240
被认为	-13241
(199	-13242
Pack	-13243
acle	-13244
ashx	-13245
rary	-13246
▁GPS	-13247
公寓距离	-13248
汽车租赁	-13249
encia	-13250
▁jump	-13251
▁lips	-13252
的更多信息	-13253
inates	-13254
upload	-13255
▁Figure	-13256
▁factor	-13257
▁Monitor	-13258
▁drivers	-13259
▁examples	-13260
▁expressed	-13261
▁Manchester	-13262
▁distributed	-13263
▁representative	-13264
mo	-13265
▁路	-13266
了几	-13267
回报	-13268
对方	-13269
平安	-13270
得救	-13271
您会	-13272
所得	-13273
种族	-13274
答应	-13275
精彩	-13276
顶部	-13277
TMt	-13278
ads	-13279
▁85	-13280
▁ur	-13281
▁卫生	-13282
了这篇	-13283
你需要	-13284
材料的	-13285
研究所	-13286
iger	-13287
lets	-13288
ords	-13289
▁yes	-13290
▁本公司	-13291
▁1999	-13292
anting	-13293
▁shoot	-13294
▁truck	-13295
▁agency	-13296
▁fitted	-13297
▁limits	-13298
▁listen	-13299
▁bearing	-13300
▁ironing	-13301
▁realized	-13302
▁supplies	-13303
▁discussions	-13304
Sc	-13305
▁仅	-13306
中有	-13307
低于	-13308
决议	-13309
在该	-13310
节能	-13311
衣橱	-13312
追踪	-13313
ACE	-13314
zen	-13315
▁BL	-13316
▁WE	-13317
▁到达	-13318
▁安装	-13319
了他的	-13320
了我们	-13321
同样的	-13322
喜爱的	-13323
慕尼黑	-13324
heim	-13325
amics	-13326
▁Week	-13327
了这篇点评	-13328
gorith	-13329
urable	-13330
▁banks	-13331
▁delay	-13332
▁etern	-13333
▁appeal	-13334
▁cultiv	-13335
▁deemed	-13336
▁detail	-13337
▁mining	-13338
回复了这篇点评	-13339
▁treated	-13340
▁employment	-13341
▁understood	-13342
DE	-13343
PE	-13344
▁←	-13345
▁常	-13346
下榻	-13347
准则	-13348
加快	-13349
回去	-13350
数码	-13351
缔约	-13352
脂肪	-13353
送餐	-13354
13-	-13355
OSS	-13356
bro	-13357
其他人	-13358
leep	-13359
pass	-13360
▁Aer	-13361
因您未能	-13362
ctors	-13363
ureau	-13364
▁Debt	-13365
▁hire	-13366
▁zone	-13367
▁surpr	-13368
▁topic	-13369
或其任何部分	-13370
▁vacuum	-13371
▁modules	-13372
免费房内无线网络	-13373
▁ensuring	-13374
▁Logistics	-13375
▁logistics	-13376
▁Christians	-13377
▁membership	-13378
NC	-13379
原来	-13380
后面	-13381
是对	-13382
的总	-13383
紧张	-13384
野生	-13385
110	-13386
▁教育	-13387
你知道	-13388
全新的	-13389
准确性	-13390
的城市	-13391
这就是	-13392
适当的	-13393
000,	-13394
cons	-13395
lers	-13396
▁Tib	-13397
▁lux	-13398
▁pra	-13399
也不会对	-13400
emony	-13401
▁Plet	-13402
▁Turn	-13403
▁vote	-13404
本使用协议	-13405
▁Drink	-13406
▁stret	-13407
faction	-13408
▁remark	-13409
▁smiled	-13410
▁washing	-13411
▁accident	-13412
▁increases	-13413
▁interview	-13414
vy	-13415
会计	-13416
发行	-13417
布罗	-13418
月份	-13419
生日	-13420
祈祷	-13421
经纪	-13422
途径	-13423
预期	-13424
AID	-13425
rot	-13426
sor	-13427
▁Ky	-13428
▁为此	-13429
▁如需	-13430
▁控制	-13431
在她的	-13432
的样子	-13433
适销性	-13434
零部件	-13435
ylon	-13436
▁50%	-13437
▁Fuj	-13438
▁acid	-13439
▁Resid	-13440
▁candid	-13441
▁stores	-13442
▁wedding	-13443
▁publicly	-13444
▁increasingly	-13445
RC	-13446
Sm	-13447
分为	-13448
托管	-13449
接着	-13450
立刻	-13451
西方	-13452
触摸	-13453
退房	-13454
送到	-13455
aha	-13456
▁XP	-13457
▁最新	-13458
代理商	-13459
请选择	-13460
迷人的	-13461
illy	-13462
mont	-13463
oured	-13464
▁Corp	-13465
▁Girls	-13466
▁Parts	-13467
▁stuff	-13468
▁walls	-13469
▁folder	-13470
▁senior	-13471
▁Hungary	-13472
▁SERVICE	-13473
▁turning	-13474
▁watching	-13475
▁arbitration	-13476
▁汉	-13477
于是	-13478
公公	-13479
异常	-13480
熨烫	-13481
移除	-13482
紧紧	-13483
那时	-13484
hou	-13485
▁52	-13486
▁Ce	-13487
▁工业	-13488
和个人	-13489
este	-13490
▁110	-13491
▁CPU	-13492
▁FAQ	-13493
▁SAS	-13494
▁aqu	-13495
▁mor	-13496
▁mun	-13497
WORKS	-13498
rooms	-13499
▁Bill	-13500
▁Chen	-13501
▁Sher	-13502
▁none	-13503
▁ster	-13504
▁till	-13505
▁解决方案	-13506
amless	-13507
detail	-13508
▁Champ	-13509
▁covers	-13510
▁paying	-13511
▁charged	-13512
▁possess	-13513
▁bookings	-13514
▁employee	-13515
▁forecast	-13516
船票价格和预订船票	-13517
▁accessing	-13518
▁generated	-13519
TF	-13520
▁点	-13521
▁索	-13522
为止	-13523
实例	-13524
已在	-13525
招聘	-13526
新鲜	-13527
日志	-13528
着我	-13529
礼品	-13530
第四	-13531
解放	-13532
记者	-13533
贵的	-13534
身心	-13535
重视	-13536
war	-13537
▁具有	-13538
▁独立	-13539
▁质量	-13540
以上的	-13541
隐私权	-13542
born	-13543
▁22,	-13544
▁Cou	-13545
▁Rod	-13546
渡轮航行	-13547
iders	-13548
▁Bent	-13549
▁Bern	-13550
▁Hell	-13551
▁exit	-13552
▁jack	-13553
▁thin	-13554
▁Aires	-13555
▁Brook	-13556
▁scope	-13557
▁score	-13558
▁signs	-13559
▁Beauty	-13560
▁Mother	-13561
▁forced	-13562
▁studio	-13563
▁DAMAGES	-13564
▁density	-13565
▁xvideos	-13566
▁Solution	-13567
▁valuable	-13568
▁Developer	-13569
▁favourite	-13570
▁household	-13571
▁salvation	-13572
HD	-13573
UK	-13574
▁凯	-13575
召开	-13576
官员	-13577
归档	-13578
放大	-13579
是为	-13580
每一	-13581
爱你	-13582
监视	-13583
空中	-13584
过期	-13585
阿密	-13586
1⁄4	-13587
ulu	-13588
和管理	-13589
奥地利	-13590
▁3.0	-13591
▁360	-13592
▁700	-13593
▁以色列	-13594
▁大多数	-13595
发出通知	-13596
租车服务	-13597
Works	-13598
▁应用程序	-13599
ighter	-13600
▁indeed	-13601
▁stream	-13602
▁string	-13603
▁Electron	-13604
▁Wardrobe	-13605
▁supplier	-13606
▁Activities	-13607
▁acceptance	-13608
▁establishment	-13609
El	-13610
加拉	-13611
吸收	-13612
展会	-13613
影片	-13614
梦想	-13615
英里	-13616
转化	-13617
erg	-13618
▁HL	-13619
共产党	-13620
文件的	-13621
迈阿密	-13622
aler	-13623
scap	-13624
重定向自	-13625
▁Prop	-13626
▁欢迎来到	-13627
itches	-13628
ocable	-13629
▁Croat	-13630
▁inner	-13631
▁lunch	-13632
▁俄罗斯联邦	-13633
▁battle	-13634
因您未能遵守本	-13635
▁calling	-13636
▁merchant	-13637
▁withdraw	-13638
▁Analytics	-13639
▁Insurance	-13640
▁computers	-13641
▁emergency	-13642
▁Processing	-13643
▁fundamental	-13644
▁identification	-13645
Am	-13646
▁陈	-13647
下述	-13648
合成	-13649
外汇	-13650
插件	-13651
暴力	-13652
涵盖	-13653
燃烧	-13654
睡眠	-13655
胜利	-13656
赌博	-13657
oft	-13658
uba	-13659
weh	-13660
▁Ye	-13661
▁ox	-13662
▁只要	-13663
▁屁股	-13664
▁确保	-13665
专业的	-13666
现有的	-13667
选择了	-13668
brid	-13669
▁24,	-13670
▁AMD	-13671
▁Hun	-13672
▁Var	-13673
▁Wed	-13674
ansom	-13675
erver	-13676
▁isol	-13677
▁查看所有	-13678
▁Holly	-13679
▁Impro	-13680
▁alarm	-13681
ilation	-13682
▁Expert	-13683
▁Robert	-13684
▁Trademark	-13685
▁extension	-13686
▁mountains	-13687
▁reduction	-13688
▁Pletronics	-13689
▁Portuguese	-13690
▁photograph	-13691
也不会对因您未能遵守本	-13692
▁discontinue	-13693
▁recognition	-13694
▁introduction	-13695
▁universities	-13696
▁Accommodation	-13697
vd	-13698
乳房	-13699
婚礼	-13700
留言	-13701
算法	-13702
美味	-13703
Eng	-13704
via	-13705
▁娱乐	-13706
▁错误	-13707
叙利亚	-13708
对他们	-13709
的企业	-13710
著作权	-13711
领导人	-13712
▁GHz	-13713
▁Gas	-13714
▁Lee	-13715
There	-13716
marks	-13717
astics	-13718
perial	-13719
▁Calle	-13720
▁Prime	-13721
▁Awards	-13722
▁Lisboa	-13723
▁Realty	-13724
▁honest	-13725
▁intern	-13726
▁Hamburg	-13727
▁clicking	-13728
▁judgment	-13729
▁containing	-13730
▁sufficient	-13731
▁participants	-13732
UC	-13733
一座	-13734
上下	-13735
不少	-13736
也可	-13737
共用	-13738
启示	-13739
和大	-13740
容纳	-13741
对他	-13742
对比	-13743
工资	-13744
弟兄	-13745
有多	-13746
本书	-13747
格里	-13748
的可	-13749
秒杀	-13750
腕表	-13751
abb	-13752
osa	-13753
rox	-13754
utr	-13755
yan	-13756
▁51	-13757
▁分享	-13758
▁设置	-13759
打印机	-13760
0000	-13761
▁Ess	-13762
▁kid	-13763
itely	-13764
▁Palm	-13765
▁sing	-13766
▁yuan	-13767
会员注册名	-13768
etooth	-13769
▁Latin	-13770
▁asset	-13771
related	-13772
resents	-13773
▁Summer	-13774
▁Belgium	-13775
▁Finally	-13776
▁Travell	-13777
▁agencies	-13778
▁overview	-13779
款规定而发生的任何	-13780
专有	-13781
关心	-13782
几天	-13783
即将	-13784
小姐	-13785
情绪	-13786
芯片	-13787
钥匙	-13788
ARY	-13789
rog	-13790
▁09	-13791
▁BB	-13792
▁Ni	-13793
▁商业	-13794
不得不	-13795
对任何	-13796
服务或	-13797
▁2.2	-13798
▁Kal	-13799
▁Kim	-13800
▁Nam	-13801
▁Own	-13802
▁Try	-13803
▁事实上	-13804
iking	-13805
reams	-13806
urich	-13807
▁sick	-13808
person	-13809
▁CORPOR	-13810
▁bodies	-13811
▁emphas	-13812
损失或损毁负责	-13813
▁encourag	-13814
▁Processor	-13815
▁emissions	-13816
▁featuring	-13817
▁guaranteed	-13818
4:	-13819
HL	-13820
Or	-13821
▁低	-13822
▁诺	-13823
主张	-13824
人工	-13825
仪式	-13826
切换	-13827
屋顶	-13828
退出	-13829
那种	-13830
CDE	-13831
Can	-13832
aco	-13833
del	-13834
lav	-13835
▁78	-13836
▁Ru	-13837
▁发布	-13838
▁音乐	-13839
在全球	-13840
应用的	-13841
2007	-13842
elli	-13843
lebr	-13844
▁ton	-13845
▁保险箱	-13846
任何地方	-13847
管理系统	-13848
▁Turk	-13849
▁Moroc	-13850
▁Polit	-13851
▁cried	-13852
某一特定用途	-13853
▁Warsaw	-13854
▁broken	-13855
▁dishes	-13856
ilateral	-13857
▁awarded	-13858
▁exchang	-13859
▁remained	-13860
▁disclosure	-13861
▁Temperature	-13862
款规定而发生的任何损失或损毁负责	-13863
5-	-13864
PO	-13865
Te	-13866
主教	-13867
奖金	-13868
直达	-13869
超越	-13870
San	-13871
▁FS	-13872
▁你要	-13873
▁语言	-13874
交易所	-13875
▁客厅角	-13876
agers	-13877
▁Vice	-13878
▁clin	-13879
▁pipe	-13880
的地理位置	-13881
Double	-13882
▁compr	-13883
▁injury	-13884
▁prophe	-13885
▁bedrooms	-13886
▁contacts	-13887
▁disabled	-13888
▁impossible	-13889
6-	-13890
▁«	-13891
▁心	-13892
▁防	-13893
再生	-13894
冰毒	-13895
子和	-13896
床和	-13897
把他	-13898
流行	-13899
苏联	-13900
VID	-13901
▁63	-13902
▁买到	-13903
▁浴室	-13904
的比例	-13905
的风险	-13906
acks	-13907
inda	-13908
▁Tal	-13909
客人可以	-13910
Tunes	-13911
berry	-13912
oston	-13913
while	-13914
▁debt	-13915
▁pair	-13916
或其他材料	-13917
unning	-13918
▁Style	-13919
▁Youth	-13920
IDWORKS	-13921
▁INTERN	-13922
的能力的一部分	-13923
▁receiving	-13924
▁equivalent	-13925
▁smartphone	-13926
▁communicate	-13927
▁corresponding	-13928
▁transformation	-13929
冬季	-13930
十七	-13931
大众	-13932
存款	-13933
岛屿	-13934
新型	-13935
残疾	-13936
滑雪	-13937
用作	-13938
绘制	-13939
高温	-13940
20,	-13941
aux	-13942
mod	-13943
▁测试	-13944
和社会	-13945
很大的	-13946
提供给	-13947
条件下	-13948
的客户	-13949
高质量	-13950
aned	-13951
mary	-13952
▁12:	-13953
▁198	-13954
▁CEO	-13955
▁Dam	-13956
▁Ide	-13957
▁PER	-13958
▁tou	-13959
办理入住	-13960
achel	-13961
▁Siem	-13962
▁Tips	-13963
▁Vish	-13964
▁tong	-13965
▁买到冰毒	-13966
ollars	-13967
▁Munich	-13968
▁Prince	-13969
▁Yahweh	-13970
redients	-13971
▁enabled	-13972
▁seeking	-13973
▁modified	-13974
▁overseas	-13975
▁slightly	-13976
▁Courtyard	-13977
▁Generator	-13978
▁developer	-13979
▁furnished	-13980
▁perfectly	-13981
▁territory	-13982
▁temporarily	-13983
AE	-13984
▁卢	-13985
一眼	-13986
大街	-13987
惩罚	-13988
而在	-13989
至关	-13990
路上	-13991
进展	-13992
(1)	-13993
fin	-13994
jin	-13995
▁8:	-13996
atin	-13997
idth	-13998
wall	-13999
▁Aud	-14000
▁Nic	-14001
▁Sir	-14002
因为他们	-14003
ether	-14004
▁Film	-14005
▁drag	-14006
▁dust	-14007
▁hung	-14008
▁oven	-14009
▁plot	-14010
▁wond	-14011
abetes	-14012
▁catch	-14013
▁accomp	-14014
▁leather	-14015
▁millions	-14016
▁structures	-14017
6/	-14018
FO	-14019
LO	-14020
MT	-14021
传真	-14022
复印	-14023
头的	-14024
平等	-14025
恐惧	-14026
施工	-14027
观众	-14028
附属	-14029
244	-14030
700	-14031
AGE	-14032
ASH	-14033
hui	-14034
rev	-14035
▁SW	-14036
▁中华	-14037
▁只是	-14038
▁曼谷	-14039
▁第五	-14040
不准确	-14041
你怎么	-14042
将您的	-14043
轻松地	-14044
rame	-14045
▁11,	-14046
▁Cos	-14047
▁Jon	-14048
▁cum	-14049
ducer	-14050
otton	-14051
ouses	-14052
▁Logo	-14053
▁Xbox	-14054
▁hell	-14055
▁subt	-14056
▁vend	-14057
▁Field	-14058
▁craft	-14059
▁depth	-14060
▁shock	-14061
▁closer	-14062
▁greatly	-14063
▁restore	-14064
▁Brussels	-14065
▁academic	-14066
▁director	-14067
▁universe	-14068
▁directory	-14069
▁developers	-14070
东方	-14071
任命	-14072
各方	-14073
商城	-14074
国务	-14075
导体	-14076
干扰	-14077
报摊	-14078
日的	-14079
武装	-14080
相似	-14081
肌肉	-14082
腐蚀	-14083
▁可能	-14084
主要的	-14085
愉快的	-14086
是一款	-14087
更大的	-14088
注意到	-14089
blog	-14090
▁12.	-14091
▁13,	-14092
明确声明	-14093
Cloud	-14094
entle	-14095
idays	-14096
illar	-14097
raham	-14098
▁Benef	-14099
▁Civil	-14100
▁heads	-14101
▁sugar	-14102
install	-14103
▁Chiang	-14104
▁Superb	-14105
▁upgrad	-14106
▁stories	-14107
▁Explorer	-14108
▁mathematics	-14109
ME	-14110
PD	-14111
▁打	-14112
▁邮	-14113
也没	-14114
声称	-14115
姆斯	-14116
常常	-14117
思维	-14118
的多	-14119
笑着	-14120
还不	-14121
iel	-14122
mad	-14123
ref	-14124
tel	-14125
▁IV	-14126
▁下面	-14127
在我的	-14128
提供带	-14129
的个人	-14130
的各种	-14131
ento	-14132
loom	-14133
onym	-14134
rada	-14135
real	-14136
sole	-14137
▁Mur	-14138
▁Nik	-14139
▁Xen	-14140
▁dep	-14141
作出任何	-14142
小时安保	-14143
epend	-14144
▁salt	-14145
▁亚麻织品	-14146
▁更多信息	-14147
▁psych	-14148
▁blocks	-14149
▁convey	-14150
▁proven	-14151
住宿加早餐旅馆	-14152
▁Finance	-14153
▁capture	-14154
▁drawing	-14155
最便宜的船票价格	-14156
▁Reserved	-14157
▁Passenger	-14158
▁functional	-14159
▁governments	-14160
▁publication	-14161
▁temperatures	-14162
▁伯	-14163
单一	-14164
干洗	-14165
很有	-14166
或许	-14167
演出	-14168
还可	-14169
ARK	-14170
Win	-14171
olo	-14172
sex	-14173
sur	-14174
▁88	-14175
▁GR	-14176
▁厘米	-14177
▁帮助	-14178
▁比较	-14179
▁1.7	-14180
耶稣基督	-14181
cohol	-14182
▁($10	-14183
▁Adam	-14184
▁Safe	-14185
▁calc	-14186
▁sequ	-14187
▁Judah	-14188
▁blind	-14189
▁colle	-14190
▁shalt	-14191
▁Disney	-14192
▁detect	-14193
▁Fashion	-14194
▁Reserve	-14195
▁Tableau	-14196
▁formats	-14197
▁Listings	-14198
▁audience	-14199
▁Argentina	-14200
▁organized	-14201
▁president	-14202
上万	-14203
光学	-14204
唤醒	-14205
宁静	-14206
开启	-14207
涂层	-14208
违法	-14209
FER	-14210
eur	-14211
pan	-14212
pes	-14213
▁Ly	-14214
▁凭借	-14215
▁行李	-14216
供应链	-14217
和技术	-14218
城市的	-14219
感觉到	-14220
此之外	-14221
的生产	-14222
cred	-14223
emon	-14224
▁rig	-14225
▁阿拉伯	-14226
统计信息	-14227
iesel	-14228
▁Come	-14229
▁MACH	-14230
▁vess	-14231
▁TERMS	-14232
▁Memory	-14233
▁colour	-14234
▁Comment	-14235
▁Deposit	-14236
▁closely	-14237
▁divided	-14238
▁journal	-14239
▁profits	-14240
▁priority	-14241
▁Microwave	-14242
▁八	-14243
▁列	-14244
三角	-14245
不住	-14246
合规	-14247
和她	-14248
委托	-14249
建模	-14250
朝鲜	-14251
目光	-14252
符号	-14253
读取	-14254
顺利	-14255
OUN	-14256
aba	-14257
vin	-14258
▁DS	-14259
▁UV	-14260
▁成为	-14261
▁抱歉	-14262
以及带	-14263
使我们	-14264
的同时	-14265
的热门	-14266
的目标	-14267
code	-14268
▁Kat	-14269
▁ast	-14270
向您提供	-14271
地理位置	-14272
该地区的	-14273
atica	-14274
orders	-14275
ovetop	-14276
▁Arrival	-14277
▁Trading	-14278
▁YouTube	-14279
▁choices	-14280
▁expired	-14281
▁crossing	-14282
▁addresses	-14283
▁fantastic	-14284
▁regularly	-14285
▁residence	-14286
UI	-14287
▁市	-14288
原料	-14289
地毯	-14290
女士	-14291
拖鞋	-14292
数百	-14293
明亮	-14294
曲线	-14295
极端	-14296
治理	-14297
燃油	-14298
神圣	-14299
补偿	-14300
魅力	-14301
鼠标	-14302
chi	-14303
nia	-14304
▁LE	-14305
▁自然	-14306
▁艺术	-14307
▁获得	-14308
▁阳台	-14309
▁韩国	-14310
的关系	-14311
风格的	-14312
dule	-14313
eeam	-14314
ilot	-14315
yang	-14316
▁Ken	-14317
▁fly	-14318
您的帐户	-14319
uries	-14320
▁Info	-14321
▁boat	-14322
▁soph	-14323
mission	-14324
▁Budget	-14325
▁perpet	-14326
▁buttons	-14327
▁harvest	-14328
▁suspect	-14329
▁concrete	-14330
▁packages	-14331
▁awareness	-14332
▁certified	-14333
▁expensive	-14334
▁strategies	-14335
()	-14336
东京	-14337
假设	-14338
好处	-14339
早上	-14340
涂料	-14341
融资	-14342
说了	-14343
马里	-14344
▁7:	-14345
▁ri	-14346
▁约翰	-14347
为自己	-14348
有许多	-14349
的最后	-14350
agon	-14351
itsa	-14352
ture	-14353
▁vot	-14354
使用条款	-14355
控制系统	-14356
Check	-14357
pport	-14358
▁Gall	-14359
▁arts	-14360
▁glad	-14361
▁hurt	-14362
ATIONS	-14363
asters	-14364
▁ABCDE	-14365
▁boost	-14366
▁haven	-14367
▁screw	-14368
ocolate	-14369
packers	-14370
service	-14371
▁Simple	-14372
▁shares	-14373
▁suites	-14374
▁Besides	-14375
▁Terrace	-14376
▁extreme	-14377
valentine	-14378
▁luxurious	-14379
▁Democratic	-14380
▁relatively	-14381
▁represents	-14382
BF	-14383
仓库	-14384
加哥	-14385
化妆	-14386
卡拉	-14387
尼克	-14388
建于	-14389
景色	-14390
求你	-14391
行使	-14392
见的	-14393
观的	-14394
观赏	-14395
Ang	-14396
Par	-14397
esc	-14398
▁sq	-14399
▁倘若	-14400
▁瑞士	-14401
▁翻译	-14402
▁荷兰	-14403
一直在	-14404
中选择	-14405
因为它	-14406
烧水壶	-14407
的名字	-14408
的渡轮	-14409
芝加哥	-14410
----	-14411
GHIJ	-14412
Rose	-14413
ipal	-14414
olly	-14415
rawn	-14416
▁Bir	-14417
▁Gro	-14418
▁REL	-14419
▁bab	-14420
▁书报摊	-14421
▁请输入	-14422
酒店预订	-14423
驱动程序	-14424
提供了一个	-14425
aneous	-14426
ologne	-14427
▁FGHIJ	-14428
▁Never	-14429
▁Satur	-14430
▁legis	-14431
▁upper	-14432
▁未经本网站	-14433
▁lovely	-14434
▁rubber	-14435
▁Studios	-14436
▁creates	-14437
免费无线网络连接	-14438
▁delivers	-14439
▁Telephone	-14440
▁competent	-14441
▁suffering	-14442
▁surrounding	-14443
▁Communication	-14444
▁INTERNATIONAL	-14445
Ed	-14446
上一	-14447
历山	-14448
机床	-14449
邮票	-14450
1.5	-14451
30,	-14452
eff	-14453
emi	-14454
▁UL	-14455
以下的	-14456
没有人	-14457
网网站	-14458
case	-14459
enth	-14460
ghan	-14461
▁1.0	-14462
▁lie	-14463
送餐服务	-14464
Hanzi	-14465
▁CORP	-14466
▁Mong	-14467
为客人提供	-14468
▁Panel	-14469
Default	-14470
▁Events	-14471
▁border	-14472
▁drinks	-14473
▁Classic	-14474
▁college	-14475
▁filters	-14476
▁finding	-14477
▁precise	-14478
▁sending	-14479
▁sidebar	-14480
▁operated	-14481
▁Brokerage	-14482
▁decorated	-14483
▁requirement	-14484
不能也不会对因您未能遵守本	-14485
DI	-14486
几年	-14487
在了	-14488
续费	-14489
花和	-14490
说着	-14491
走路	-14492
起居	-14493
URE	-14494
▁EM	-14495
▁如今	-14496
▁市场	-14497
不支持	-14498
动物园	-14499
成立于	-14500
让他们	-14501
IGHT	-14502
olec	-14503
▁1.9	-14504
▁30%	-14505
▁Imm	-14506
▁Lar	-14507
▁SIM	-14508
cling	-14509
ersey	-14510
prene	-14511
▁Base	-14512
▁Edge	-14513
ewlett	-14514
▁facts	-14515
设备有限公司	-14516
hejiang	-14517
▁Buenos	-14518
▁attach	-14519
▁phones	-14520
▁Denmark	-14521
▁Firefox	-14522
▁attorneys	-14523
▁conversation	-14524
▁measurements	-14525
人物	-14526
使命	-14527
多年	-14528
对应	-14529
对手	-14530
最小	-14531
水疗	-14532
这项	-14533
领土	-14534
cia	-14535
iga	-14536
sen	-14537
sir	-14538
▁1、	-14539
▁66	-14540
▁9:	-14541
▁Mi	-14542
▁RO	-14543
▁出发	-14544
▁目录	-14545
帮助你	-14546
更高的	-14547
最优惠	-14548
有哪些	-14549
有用的	-14550
的应用	-14551
的经济	-14552
需求的	-14553
▁Bor	-14554
▁Dry	-14555
▁Eth	-14556
▁Sha	-14557
▁caf	-14558
全权决定	-14559
ronic	-14560
▁Lady	-14561
▁Nipp	-14562
▁Phys	-14563
▁Tree	-14564
Cookie	-14565
fortun	-14566
▁Daten	-14567
▁Hanzi	-14568
▁Columb	-14569
▁Points	-14570
▁finish	-14571
酒店的最新价格	-14572
▁Vintage	-14573
▁fishing	-14574
▁specify	-14575
▁tungsten	-14576
▁commission	-14577
▁WebResource	-14578
rh	-14579
▁弗	-14580
▁龙	-14581
一无	-14582
坚固	-14583
奇怪	-14584
成年	-14585
承受	-14586
既然	-14587
生素	-14588
花费	-14589
英尺	-14590
行了	-14591
bai	-14592
ici	-14593
▁68	-14594
▁地点	-14595
变化的	-14596
的环境	-14597
rink	-14598
unte	-14599
▁Bos	-14600
▁mac	-14601
卫星频道	-14602
1313-	-14603
allel	-14604
angle	-14605
▁Driv	-14606
▁runs	-14607
ewhere	-14608
stream	-14609
ulator	-14610
▁clips	-14611
▁marks	-14612
▁spons	-14613
▁bridge	-14614
bassador	-14615
▁desired	-14616
▁posting	-14617
▁criminal	-14618
▁engineers	-14619
▁regulatory	-14620
▁未经本网站明确书面同意	-14621
€¦	-14622
▁林	-14623
主任	-14624
之地	-14625
分区	-14626
别的	-14627
半岛	-14628
能在	-14629
hao	-14630
ned	-14631
▁.[	-14632
▁ib	-14633
▁酒吧	-14634
创新的	-14635
和住宿	-14636
的人们	-14637
的设备	-14638
赫尔辛	-14639
PORT	-14640
▁Six	-14641
▁Cort	-14642
▁Requ	-14643
▁Wiki	-14644
▁trib	-14645
的任何其他	-14646
icians	-14647
▁Lanka	-14648
▁Study	-14649
▁maker	-14650
▁proof	-14651
▁prosp	-14652
▁enthus	-14653
▁yellow	-14654
▁Dialogue	-14655
▁Intellig	-14656
▁Paradise	-14657
▁opposite	-14658
▁Communist	-14659
▁reporting	-14660
▁departments	-14661
Af	-14662
hm	-14663
人家	-14664
加载	-14665
在本	-14666
效应	-14667
教导	-14668
温暖	-14669
边界	-14670
雇用	-14671
餐区	-14672
▁当你	-14673
▁熨斗	-14674
成员国	-14675
或不能	-14676
提交的	-14677
链接到	-14678
TAIN	-14679
curs	-14680
onic	-14681
▁Hal	-14682
▁mel	-14683
▁por	-14684
▁sli	-14685
会议中心	-14686
ilent	-14687
encing	-14688
lisher	-14689
▁Based	-14690
▁免费洗浴用品	-14691
▁Learning	-14692
▁exciting	-14693
▁Bluetooth	-14694
GE	-14695
▁基	-14696
▁相	-14697
▁给	-14698
中东	-14699
乔治	-14700
产量	-14701
优良	-14702
十九	-14703
审核	-14704
意志	-14705
抽象	-14706
气氛	-14707
订房	-14708
125	-14709
ods	-14710
▁67	-14711
▁进行	-14712
可通过	-14713
有机会	-14714
的系统	-14715
美好的	-14716
iser	-14717
lian	-14718
onda	-14719
▁FIT	-14720
▁MER	-14721
烤面包机	-14722
quiry	-14723
▁Army	-14724
▁Patt	-14725
▁encl	-14726
▁hang	-14727
cribed	-14728
letter	-14729
▁Would	-14730
▁angle	-14731
▁stamp	-14732
自行全权决定	-14733
leading	-14734
▁Camera	-14735
▁Course	-14736
▁Zurich	-14737
▁testim	-14738
▁Abraham	-14739
▁finance	-14740
▁invalid	-14741
▁pleased	-14742
atibility	-14743
▁Detailed	-14744
▁calendar	-14745
▁painting	-14746
▁programme	-14747
▁discovered	-14748
▁CORPORATION	-14749
▁technological	-14750
WS	-14751
不敢	-14752
体现	-14753
可视	-14754
国外	-14755
士顿	-14756
大战	-14757
威尔	-14758
宝贝	-14759
生存	-14760
知名	-14761
缩短	-14762
转向	-14763
bal	-14764
bus	-14765
irk	-14766
lyn	-14767
▁Ox	-14768
▁电邮	-14769
▁购买	-14770
功能的	-14771
和软件	-14772
洗碗机	-14773
秒杀网	-14774
罗地亚	-14775
里兰卡	-14776
arus	-14777
eeps	-14778
机场接送	-14779
液晶电视	-14780
cycle	-14781
works	-14782
▁HOME	-14783
▁lawy	-14784
▁sexy	-14785
▁vert	-14786
Center	-14787
▁Agric	-14788
▁Chief	-14789
▁Ident	-14790
▁surve	-14791
reprene	-14792
▁Filter	-14793
▁cooper	-14794
▁failed	-14795
▁hospit	-14796
▁occurs	-14797
▁visible	-14798
▁entirely	-14799
▁guidance	-14800
▁measured	-14801
▁integrity	-14802
▁reputation	-14803
▁specialized	-14804
▁贝	-14805
▁黄	-14806
人体	-14807
民间	-14808
继承	-14809
邪恶	-14810
雇员	-14811
ONE	-14812
zes	-14813
▁KM	-14814
▁Na	-14815
▁ju	-14816
▁智能	-14817
▁难道	-14818
人民币	-14819
发生的	-14820
完全的	-14821
设施和	-14822
负责人	-14823
ifer	-14824
▁15,	-14825
▁GDP	-14826
▁Ray	-14827
▁Sus	-14828
空调客房	-14829
anton	-14830
chers	-14831
cture	-14832
▁Finn	-14833
▁Pric	-14834
▁Rect	-14835
▁Talk	-14836
▁myst	-14837
▁wave	-14838
▁您可以在	-14839
lights	-14840
▁Trust	-14841
▁brief	-14842
▁lobby	-14843
▁Employ	-14844
▁Vishay	-14845
▁adults	-14846
▁dollar	-14847
▁topics	-14848
▁compare	-14849
▁convent	-14850
▁knowing	-14851
▁Contract	-14852
▁hospital	-14853
▁highlight	-14854
▁relaxation	-14855
▁modification	-14856
▁participation	-14857
Me	-14858
一旦	-14859
之内	-14860
会展	-14861
灵性	-14862
牛奶	-14863
直径	-14864
禁烟	-14865
部队	-14866
麦克	-14867
rin	-14868
▁od	-14869
▁私人	-14870
▁计划	-14871
国家和	-14872
详细的	-14873
cams	-14874
edge	-14875
lock	-14876
▁14:	-14877
▁25,	-14878
▁VIP	-14879
姊妹计划	-14880
elled	-14881
▁surg	-14882
▁Diego	-14883
▁Plant	-14884
▁Tibet	-14885
▁hyper	-14886
▁noted	-14887
▁Update	-14888
▁insert	-14889
▁native	-14890
▁Olympic	-14891
▁William	-14892
▁cameras	-14893
▁conform	-14894
▁decades	-14895
▁Official	-14896
▁proposed	-14897
▁servants	-14898
▁tracking	-14899
▁positions	-14900
▁SOLIDWORKS	-14901
▁capability	-14902
▁situations	-14903
6]	-14904
„¢	-14905
两国	-14906
均匀	-14907
奥尔	-14908
层次	-14909
延迟	-14910
惊讶	-14911
斯基	-14912
根廷	-14913
楼梯	-14914
而非	-14915
自治	-14916
致的	-14917
透露	-14918
镜头	-14919
ISH	-14920
aro	-14921
▁CE	-14922
▁CM	-14923
孩子们	-14924
对他说	-14925
是如何	-14926
稳定性	-14927
aret	-14928
file	-14929
▁180	-14930
▁Bot	-14931
▁卫生纸	-14932
密钥生成	-14933
▁Cafe	-14934
▁Mech	-14935
▁bask	-14936
▁keys	-14937
▁pull	-14938
▁免费停车	-14939
▁如果您的	-14940
▁holds	-14941
▁wouldn	-14942
quarters	-14943
▁CONTACT	-14944
▁gardens	-14945
▁married	-14946
▁missing	-14947
▁noticed	-14948
▁Designed	-14949
▁Electrical	-14950
FA	-14951
▁●	-14952
▁性	-14953
▁过	-14954
便携	-14955
修正	-14956
或车	-14957
扮演	-14958
日益	-14959
男孩	-14960
英雄	-14961
语音	-14962
50,	-14963
AME	-14964
enh	-14965
tub	-14966
上使用	-14967
的事实	-14968
科学家	-14969
领导者	-14970
ardo	-14971
rine	-14972
▁Ari	-14973
▁urg	-14974
▁1995	-14975
▁Comb	-14976
▁Fish	-14977
▁Furn	-14978
▁当前位置	-14979
▁Chain	-14980
▁birds	-14981
▁fraud	-14982
▁ratio	-14983
▁rough	-14984
athered	-14985
contact	-14986
▁Bright	-14987
▁Jewish	-14988
▁planet	-14989
▁taught	-14990
▁tested	-14991
▁Present	-14992
▁medicine	-14993
▁variable	-14994
▁Automatic	-14995
▁confirmed	-14996
专属	-14997
为何	-14998
之遥	-14999
加勒	-15000
可选	-15001
尔多	-15002
尔的	-15003
尚未	-15004
尽量	-15005
游泳	-15006
32/	-15007
bec	-15008
▁69	-15009
▁72	-15010
▁公共	-15011
▁建筑	-15012
不完整	-15013
或修改	-15014
能够在	-15015
设计师	-15016
▁12,	-15017
▁Age	-15018
▁Cha	-15019
▁Rap	-15020
▁nob	-15021
eding	-15022
hedul	-15023
rible	-15024
▁Seaw	-15025
▁emot	-15026
▁jade	-15027
▁male	-15028
igious	-15029
▁Alice	-15030
▁Liver	-15031
▁Movie	-15032
▁Those	-15033
▁cream	-15034
▁icons	-15035
ishment	-15036
▁Vision	-15037
▁facing	-15038
▁fellow	-15039
▁fourth	-15040
▁spoken	-15041
▁twenty	-15042
▁wisdom	-15043
▁查询维基百科	-15044
▁adopted	-15045
▁worship	-15046
▁aircraft	-15047
▁criteria	-15048
▁designer	-15049
▁distinct	-15050
▁Departure	-15051
▁destroyed	-15052
▁designated	-15053
▁surrounded	-15054
▁查询维基百科姊妹计划	-15055
▁莫	-15056
▁达	-15057
你能	-15058
刀具	-15059
千万	-15060
因而	-15061
岁的	-15062
已知	-15063
干预	-15064
性恋	-15065
洛斯	-15066
王国	-15067
粉末	-15068
认真	-15069
迁移	-15070
领袖	-15071
2.5	-15072
▁借助	-15073
▁对话	-15074
▁正如	-15075
▁经过	-15076
千上万	-15077
地看着	-15078
的商业	-15079
稳定的	-15080
aine	-15081
ders	-15082
etch	-15083
that	-15084
▁4.0	-15085
▁CBD	-15086
▁Mot	-15087
▁Wik	-15088
▁是一个	-15089
受欢迎的	-15090
法律法规	-15091
▁Move	-15092
▁Wake	-15093
▁dear	-15094
▁Veeam	-15095
▁dance	-15096
▁liver	-15097
▁storm	-15098
ificial	-15099
▁excess	-15100
▁Designer	-15101
▁bringing	-15102
▁diseases	-15103
▁enabling	-15104
▁entering	-15105
▁replaced	-15106
▁permanent	-15107
提到	-15108
效益	-15109
教训	-15110
温泉	-15111
点头	-15112
环球	-15113
球员	-15114
疯狂	-15115
给了	-15116
转型	-15117
485	-15118
AIM	-15119
dao	-15120
svg	-15121
▁PS	-15122
▁回到	-15123
▁如您	-15124
一部分	-15125
出租车	-15126
高收益	-15127
Wiki	-15128
olid	-15129
rama	-15130
sear	-15131
▁11:	-15132
▁16,	-15133
▁Yet	-15134
▁org	-15135
▁tap	-15136
▁微波炉	-15137
专业知识	-15138
特色服务	-15139
胡志明市	-15140
iplom	-15141
▁Merc	-15142
▁Slov	-15143
▁Wolf	-15144
▁Force	-15145
▁angel	-15146
▁Boston	-15147
▁Lounge	-15148
▁Trojan	-15149
▁intent	-15150
▁nights	-15151
▁trains	-15152
▁Discuss	-15153
▁accompl	-15154
▁endorse	-15155
▁engaged	-15156
▁letters	-15157
▁receipt	-15158
▁venture	-15159
企业股份有限公司	-15160
▁Planning	-15161
▁commonly	-15162
▁substant	-15163
▁Siliconix	-15164
▁recording	-15165
▁preferences	-15166
▁Environmental	-15167
Pr	-15168
一阵	-15169
呼吁	-15170
学者	-15171
情的	-15172
日在	-15173
群体	-15174
钓鱼	-15175
限度	-15176
ERT	-15177
esa	-15178
isi	-15179
sch	-15180
▁Ay	-15181
▁每天	-15182
不真实	-15183
健身房	-15184
发电机	-15185
时刻表	-15186
电热水	-15187
▁hyp	-15188
▁本网页	-15189
法律规定	-15190
hetic	-15191
organ	-15192
▁Hels	-15193
▁Lock	-15194
▁fort	-15195
▁norm	-15196
▁电烧水壶	-15197
可持续发展	-15198
地图上查看	-15199
ariant	-15200
▁Route	-15201
▁legit	-15202
▁minor	-15203
机械有限公司	-15204
ervices	-15205
▁Common	-15206
▁breast	-15207
▁narrow	-15208
▁Century	-15209
▁Cologne	-15210
▁Message	-15211
▁beaches	-15212
▁railway	-15213
▁Atlantic	-15214
▁Southern	-15215
▁algorith	-15216
▁Universal	-15217
▁departure	-15218
▁太	-15219
两人	-15220
内置	-15221
叉车	-15222
投注	-15223
有利	-15224
立场	-15225
舞蹈	-15226
飓风	-15227
ami	-15228
▁Rh	-15229
▁我不	-15230
已经被	-15231
有效地	-15232
没想到	-15233
的作用	-15234
的基本	-15235
的支持	-15236
维也纳	-15237
Tech	-15238
▁BUT	-15239
正在寻找	-15240
耶和华的	-15241
距离酒店	-15242
xygen	-15243
▁关于我们	-15244
▁谷歌地图	-15245
产品和服务	-15246
商务和休闲	-15247
Detail	-15248
lution	-15249
▁Optim	-15250
▁album	-15251
▁fluid	-15252
▁inher	-15253
或车船票价格	-15254
ributes	-15255
▁Unless	-15256
▁buying	-15257
▁colors	-15258
▁Ukraine	-15259
▁selling	-15260
某一特定用途和无	-15261
▁protocol	-15262
▁shoulder	-15263
HK	-15264
uo	-15265
▁经	-15266
上来	-15267
克力	-15268
加州	-15269
厚的	-15270
多次	-15271
大概	-15272
当局	-15273
或您	-15274
斗争	-15275
爆炸	-15276
赛事	-15277
门户	-15278
隔音	-15279
axy	-15280
gra	-15281
lan	-15282
▁3)	-15283
▁76	-15284
▁::	-15285
▁SI	-15286
▁不是	-15287
▁供应	-15288
▁想要	-15289
▁行业	-15290
下来的	-15291
我可以	-15292
有趣的	-15293
氧化碳	-15294
enez	-15295
tion	-15296
▁23,	-15297
▁8.0	-15298
▁CAN	-15299
▁Pic	-15300
▁nom	-15301
▁进口商	-15302
▁Body	-15303
▁MIME	-15304
▁Salv	-15305
▁synt	-15306
▁这家酒店	-15307
明确声明不	-15308
eneral	-15309
ricane	-15310
▁2016,	-15311
▁shift	-15312
等方面的保证	-15313
ulating	-15314
▁Bulgar	-15315
▁PayPal	-15316
▁lights	-15317
▁valves	-15318
▁Articles	-15319
▁Discount	-15320
▁Position	-15321
▁Saturday	-15322
▁contrast	-15323
▁coverage	-15324
▁emerging	-15325
▁entitled	-15326
▁ordinary	-15327
▁violence	-15328
▁Directory	-15329
▁dangerous	-15330
▁existence	-15331
侵权行为等方面的保证	-15332
▁associates	-15333
▁regardless	-15334
▁continuously	-15335
/5	-15336
BL	-15337
UE	-15338
何时	-15339
垂直	-15340
审计	-15341
对该	-15342
早晨	-15343
毕竟	-15344
片段	-15345
航天	-15346
遍及	-15347
ITT	-15348
cha	-15349
▁94	-15350
▁IF	-15351
▁Ms	-15352
▁说着	-15353
也就是	-15354
以满足	-15355
优秀的	-15356
华盛顿	-15357
因为他	-15358
最佳的	-15359
服务商	-15360
的标准	-15361
Port	-15362
othe	-15363
rous	-15364
▁Job	-15365
▁Tos	-15366
▁ban	-15367
allas	-15368
▁void	-15369
▁fabric	-15370
▁wooden	-15371
▁Agilent	-15372
▁aluminum	-15373
▁optimize	-15374
▁suddenly	-15375
▁Excellent	-15376
▁explained	-15377
▁acquisition	-15378
▁intelligence	-15379
MD	-15380
付费	-15381
依靠	-15382
便是	-15383
向你	-15384
如同	-15385
拉丁	-15386
简便	-15387
聚会	-15388
里达	-15389
隔离	-15390
108	-15391
:01	-15392
ASE	-15393
Ant	-15394
egu	-15395
▁07	-15396
▁HE	-15397
▁后来	-15398
▁配置	-15399
不可能	-15400
全部或	-15401
对您的	-15402
提供全	-15403
某个人	-15404
的人口	-15405
(201	-15406
earl	-15407
rose	-15408
▁Ale	-15409
▁Lau	-15410
▁RSS	-15411
▁php	-15412
即时确认	-15413
空房情况	-15414
scale	-15415
▁Bell	-15416
▁Does	-15417
▁HTTP	-15418
▁Moon	-15419
▁这间客房	-15420
uation	-15421
ushing	-15422
▁mouse	-15423
▁pumps	-15424
control	-15425
▁Altern	-15426
▁iTunes	-15427
▁degrees	-15428
▁despite	-15429
▁fathers	-15430
▁forever	-15431
▁reverse	-15432
▁visitor	-15433
▁darkness	-15434
▁relative	-15435
▁Professor	-15436
▁universal	-15437
▁attractive	-15438
▁Certificate	-15439
亲自	-15440
免受	-15441
寄存	-15442
无缝	-15443
江苏	-15444
生长	-15445
筛选	-15446
说过	-15447
11.	-15448
ICE	-15449
bia	-15450
▁优良	-15451
可享受	-15452
Care	-15453
Kiss	-15454
fall	-15455
sper	-15456
▁Dif	-15457
▁Hua	-15458
▁egg	-15459
▁lod	-15460
Ferry	-15461
ansas	-15462
▁Leon	-15463
▁bapt	-15464
itants	-15465
▁Short	-15466
▁客人可以在	-15467
▁Except	-15468
▁waters	-15469
▁Houston	-15470
▁Perfect	-15471
▁filling	-15472
▁Fabulous	-15473
▁seamless	-15474
▁teachers	-15475
▁Recommend	-15476
▁execution	-15477
▁prohibited	-15478
▁suspension	-15479
▁Furthermore	-15480
▁Certification	-15481
dl	-15482
──	-15483
▁做	-15484
▁欧	-15485
▁沙	-15486
上主	-15487
低价	-15488
嘴里	-15489
地下	-15490
地标	-15491
抓住	-15492
数的	-15493
格拉	-15494
直播	-15495
纪录	-15496
证实	-15497
颗粒	-15498
igr	-15499
▁FR	-15500
▁SA	-15501
▁认证	-15502
兰克福	-15503
损失的	-15504
高性能	-15505
bane	-15506
racy	-15507
teen	-15508
▁10%	-15509
▁Bat	-15510
▁São	-15511
▁vit	-15512
▁我知道	-15513
▁用餐区	-15514
电热水壶	-15515
charg	-15516
check	-15517
tools	-15518
▁Expo	-15519
▁Pont	-15520
▁Prim	-15521
▁duty	-15522
▁germ	-15523
▁mins	-15524
▁virt	-15525
▁Curve	-15526
▁Falls	-15527
▁coach	-15528
▁saith	-15529
▁shell	-15530
▁Webcam	-15531
▁booked	-15532
▁courts	-15533
▁marked	-15534
Shanghai	-15535
▁Northern	-15536
▁ultimate	-15537
▁secondary	-15538
▁compensation	-15539
SH	-15540
▁博	-15541
▁章	-15542
▁能	-15543
▁雷	-15544
为我	-15545
低的	-15546
光临	-15547
卡尔	-15548
季度	-15549
引入	-15550
彩色	-15551
拍卖	-15552
法定	-15553
由此	-15554
给她	-15555
美容	-15556
老板	-15557
都很	-15558
马斯	-15559
160	-15560
wer	-15561
▁Fu	-15562
▁允许	-15563
▁医疗	-15564
▁接受	-15565
▁数字	-15566
办公桌	-15567
天然气	-15568
或淋浴	-15569
机场是	-15570
看到了	-15571
girl	-15572
平面电视	-15573
您的帐号	-15574
法律责任	-15575
build	-15576
▁Lith	-15577
▁Mail	-15578
▁Scot	-15579
▁hole	-15580
▁tank	-15581
▁除此之外	-15582
▁Again	-15583
▁Bella	-15584
▁Delhi	-15585
▁Labor	-15586
Packard	-15587
Service	-15588
▁boasts	-15589
▁resear	-15590
很好的住宿地方	-15591
ometimes	-15592
▁diverse	-15593
▁weapons	-15594
▁Magazine	-15595
▁believes	-15596
▁discussion	-15597
▁presentation	-15598
▁Communications	-15599
4]	-15600
▁注	-15601
▁皮	-15602
一把	-15603
受害	-15604
品种	-15605
围绕	-15606
对你	-15607
渴望	-15608
激动	-15609
评级	-15610
走向	-15611
防护	-15612
除外	-15613
难忘	-15614
马克	-15615
Hot	-15616
igg	-15617
ted	-15618
▁Ci	-15619
▁愿望	-15620
半导体	-15621
时间的	-15622
的部分	-15623
空调和	-15624
网站和	-15625
Word	-15626
irus	-15627
▁(10	-15628
▁Dun	-15629
▁gym	-15630
▁对不起	-15631
最重要的	-15632
▁Mean	-15633
▁Rain	-15634
▁evol	-15635
▁flag	-15636
▁phen	-15637
▁Arbit	-15638
▁Stone	-15639
▁Urban	-15640
▁ocean	-15641
▁室外游泳池	-15642
最优惠的价格	-15643
ogether	-15644
▁Heaven	-15645
▁Import	-15646
▁caught	-15647
▁gospel	-15648
▁mirror	-15649
▁Parties	-15650
▁delight	-15651
▁freight	-15652
▁islands	-15653
▁pricing	-15654
▁serving	-15655
▁species	-15656
▁Moreover	-15657
▁disclaim	-15658
▁executive	-15659
▁ingredients	-15660
▁replacement	-15661
At	-15662
cs	-15663
▁`	-15664
▁反	-15665
免责	-15666
区间	-15667
多了	-15668
妙的	-15669
常规	-15670
德语	-15671
成型	-15672
水族	-15673
活跃	-15674
线性	-15675
货运	-15676
预报	-15677
She	-15678
hof	-15679
▁Dj	-15680
▁HR	-15681
▁MD	-15682
▁另一	-15683
什么事	-15684
增加了	-15685
市场上	-15686
我们所	-15687
给他们	-15688
被视为	-15689
2004	-15690
Page	-15691
idge	-15692
lang	-15693
prot	-15694
▁14,	-15695
▁Imp	-15696
▁TOS	-15697
▁VPN	-15698
▁gun	-15699
▁mur	-15700
▁suc	-15701
成千上万	-15702
inals	-15703
orses	-15704
▁2002	-15705
▁HLMP	-15706
▁Item	-15707
▁hate	-15708
▁lots	-15709
笔记本电脑	-15710
▁shoes	-15711
▁steam	-15712
Hewlett	-15713
inental	-15714
▁League	-15715
▁sexual	-15716
▁sounds	-15717
▁Desktop	-15718
▁ordered	-15719
▁sophist	-15720
▁Wireless	-15721
▁election	-15722
▁analytics	-15723
▁processed	-15724
▁promoting	-15725
▁satisfaction	-15726
.2	-15727
/4	-15728
▁真	-15729
前的	-15730
合伙	-15731
同事	-15732
和不	-15733
塔尔	-15734
套件	-15735
弹性	-15736
总理	-15737
您是	-15738
般的	-15739
Fin	-15740
esk	-15741
vol	-15742
受中国	-15743
只需要	-15744
在哪里	-15745
显示器	-15746
然后再	-15747
的材料	-15748
ATED	-15749
▁Apt	-15750
▁Dim	-15751
▁Nat	-15752
创建一个	-15753
abeth	-15754
trans	-15755
▁Aren	-15756
▁Days	-15757
▁Lang	-15758
▁hast	-15759
▁moon	-15760
▁prev	-15761
ustain	-15762
▁formal	-15763
▁Commerce	-15764
▁Administr	-15765
▁Adventure	-15766
▁Controller	-15767
▁philosophy	-15768
CF	-15769
GO	-15770
YR	-15771
▁河	-15772
上午	-15773
区和	-15774
南非	-15775
大幅	-15776
大楼	-15777
对待	-15778
尽快	-15779
开心	-15780
房产	-15781
男子	-15782
禁用	-15783
紧密	-15784
顺序	-15785
izz	-15786
mat	-15787
▁Ku	-15788
▁针对	-15789
▁集团	-15790
在你的	-15791
摄像机	-15792
▁Dou	-15793
▁guy	-15794
在线预订	-15795
preme	-15796
tical	-15797
▁Cool	-15798
▁Heat	-15799
▁Pain	-15800
▁mand	-15801
▁oral	-15802
▁酒店位置	-15803
ceived	-15804
coming	-15805
▁inhab	-15806
▁judge	-15807
▁moist	-15808
▁Module	-15809
▁orient	-15810
▁roller	-15811
▁unwind	-15812
cellence	-15813
▁transit	-15814
▁attached	-15815
▁gathered	-15816
▁hydraulic	-15817
▁typically	-15818
▁implemented	-15819
▁contribution	-15820
▁confidentiality	-15821
▁凡	-15822
一辆	-15823
专题	-15824
住所	-15825
合约	-15826
座位	-15827
式的	-15828
弟子	-15829
把她	-15830
替换	-15831
毗邻	-15832
画面	-15833
病人	-15834
突破	-15835
聚集	-15836
边的	-15837
远离	-15838
音机	-15839
麻烦	-15840
▁分类	-15841
严重的	-15842
士学位	-15843
您必须	-15844
或删除	-15845
法律或	-15846
生产的	-15847
而设计	-15848
City	-15849
hatt	-15850
▁Due	-15851
▁Wan	-15852
▁lamp	-15853
任何第三方	-15854
暂停或终止	-15855
design	-15856
forget	-15857
scribe	-15858
▁Huang	-15859
▁throw	-15860
ruction	-15861
▁Dollar	-15862
▁Option	-15863
▁Rental	-15864
▁depart	-15865
▁gentle	-15866
Shenzhen	-15867
▁Morocco	-15868
▁Teacher	-15869
▁eternal	-15870
▁revenue	-15871
▁utility	-15872
▁violate	-15873
▁Sciences	-15874
▁announce	-15875
▁concerns	-15876
▁elevator	-15877
▁Authority	-15878
▁educational	-15879
▁consideration	-15880
8-	-15881
▁富	-15882
批评	-15883
日历	-15884
木材	-15885
殖民	-15886
福利	-15887
脱离	-15888
船舶	-15889
词典	-15890
还没	-15891
鸡尾	-15892
黎世	-15893
Tra	-15894
▁VI	-15895
▁功能	-15896
▁很多	-15897
▁打开	-15898
▁概览	-15899
▁连接	-15900
下一个	-15901
和其它	-15902
并通过	-15903
时间和	-15904
▁15:	-15905
▁CAR	-15906
▁Ell	-15907
▁GNU	-15908
▁IoT	-15909
▁Zoo	-15910
arity	-15911
elanc	-15912
▁Sett	-15913
▁ease	-15914
▁grab	-15915
▁grew	-15916
▁stim	-15917
▁turb	-15918
▁Smith	-15919
▁rated	-15920
不完整或不能	-15921
ternoon	-15922
▁Agency	-15923
▁terror	-15924
可能会有所不同	-15925
▁Plastic	-15926
▁enemies	-15927
▁fingers	-15928
▁reduces	-15929
▁Princess	-15930
▁recorded	-15931
▁Guangdong	-15932
▁contribute	-15933
▁identified	-15934
▁consequential	-15935
7-	-15936
也将	-15937
传染	-15938
博览	-15939
愤怒	-15940
改造	-15941
用力	-15942
精心	-15943
跟我	-15944
遍布	-15945
atz	-15946
las	-15947
▁Ri	-15948
▁个月	-15949
其中的	-15950
力资源	-15951
和安全	-15952
式旅舍	-15953
生命的	-15954
着我的	-15955
设备上	-15956
icer	-15957
main	-15958
▁Ark	-15959
▁Mob	-15960
▁ped	-15961
如何使用	-15962
ician	-15963
otype	-15964
ument	-15965
▁Cube	-15966
▁rein	-15967
▁seal	-15968
▁suck	-15969
▁wash	-15970
这种情况下	-15971
ensing	-15972
insula	-15973
▁2015,	-15974
▁Floor	-15975
▁Jacob	-15976
▁homes	-15977
▁bought	-15978
▁engage	-15979
▁mutual	-15980
▁optimal	-15981
▁rapidly	-15982
乘客或车船票价格	-15983
▁declared	-15984
▁timeline	-15985
▁commanded	-15986
▁computing	-15987
▁injection	-15988
▁landscape	-15989
▁residents	-15990
fortunately	-15991
▁Asiahotels	-15992
▁laboratory	-15993
▁contractors	-15994
▁exceptional	-15995
▁帕	-15996
危害	-15997
复兴	-15998
字段	-15999
当代	-16000
更快	-16001
权益	-16002
校准	-16003
橄榄	-16004
每周	-16005
洁净	-16006
背包	-16007
船上	-16008
血液	-16009
赋予	-16010
辐射	-16011
雷斯	-16012
nda	-16013
▁2、	-16014
▁人们	-16015
▁入住	-16016
▁按摩	-16017
▁购物	-16018
一会儿	-16019
中使用	-16020
公寓是	-16021
在网上	-16022
多利亚	-16023
是多少	-16024
英特尔	-16025
预订了	-16026
enic	-16027
only	-16028
▁16:	-16029
▁Mas	-16030
▁mob	-16031
▁最近的	-16032
什么时候	-16033
以及其他	-16034
展览中心	-16035
相关信息	-16036
许可使用	-16037
rasse	-16038
which	-16039
▁Apps	-16040
▁Coat	-16041
▁fans	-16042
▁shot	-16043
▁客房类型	-16044
床位加早餐	-16045
andong	-16046
▁Death	-16047
▁Rules	-16048
▁honor	-16049
▁liked	-16050
▁pussy	-16051
▁recon	-16052
▁taxes	-16053
ambling	-16054
▁Remote	-16055
▁Climate	-16056
▁printed	-16057
▁stylish	-16058
床位加早餐式旅舍	-16059
▁Cleaning	-16060
▁disputes	-16061
▁Satellite	-16062
▁investments	-16063
不完整或不能反映当前情况	-16064
!”	-16065
可怕	-16066
周年	-16067
地处	-16068
境内	-16069
弹簧	-16070
德罗	-16071
本来	-16072
村庄	-16073
究竟	-16074
虚假	-16075
象征	-16076
躺在	-16077
180	-16078
ORS	-16079
vas	-16080
▁NU	-16081
▁PH	-16082
▁他在	-16083
▁单击	-16084
▁工程	-16085
▁政府	-16086
▁编程	-16087
▁设施	-16088
提高了	-16089
West	-16090
irms	-16091
park	-16092
▁Fan	-16093
▁Pas	-16094
▁Sof	-16095
▁Ten	-16096
▁aer	-16097
▁tro	-16098
▁您现在	-16099
常见问题	-16100
文件大小	-16101
联系方式	-16102
etime	-16103
riers	-16104
▁Brun	-16105
▁Rica	-16106
▁Sukh	-16107
▁WILL	-16108
ottage	-16109
▁2017,	-16110
▁Blood	-16111
▁Brown	-16112
▁Views	-16113
▁alive	-16114
▁antib	-16115
pending	-16116
▁Compet	-16117
▁sublic	-16118
▁tables	-16119
▁Pattaya	-16120
▁Ethernet	-16121
▁Companies	-16122
▁discounts	-16123
▁Ambassador	-16124
▁statements	-16125
▁differences	-16126
▁perspective	-16127
也就	-16128
分开	-16129
前面	-16130
北美	-16131
呼叫	-16132
和高	-16133
团结	-16134
探讨	-16135
放心	-16136
水果	-16137
登陆	-16138
类的	-16139
而已	-16140
都被	-16141
ENS	-16142
pic	-16143
▁两个	-16144
▁特别	-16145
体育场	-16146
使他们	-16147
很高兴	-16148
是通过	-16149
最高的	-16150
结束后	-16151
设有带	-16152
bian	-16153
oses	-16154
▁2.3	-16155
▁cyl	-16156
▁fle	-16157
▁unc	-16158
▁墨西哥	-16159
▁您必须	-16160
法的保护	-16161
▁Tong	-16162
▁bare	-16163
▁tons	-16164
目的地国家	-16165
▁Ended	-16166
▁stick	-16167
▁troub	-16168
▁Norway	-16169
▁asking	-16170
▁buffet	-16171
▁severe	-16172
▁Display	-16173
▁Janeiro	-16174
▁putting	-16175
▁totally	-16176
▁Database	-16177
▁Independ	-16178
▁acquired	-16179
▁grinding	-16180
▁spending	-16181
▁Contribut	-16182
▁Translation	-16183
BI	-16184
▁别	-16185
▁次	-16186
▁泰	-16187
一声	-16188
两次	-16189
事宜	-16190
什麽	-16191
伯拉	-16192
光纤	-16193
品尝	-16194
并为	-16195
当你	-16196
棒的	-16197
01,	-16198
ovo	-16199
▁62	-16200
▁BU	-16201
▁Wy	-16202
▁提示	-16203
▁海滩	-16204
▁环境	-16205
会议室	-16206
它们的	-16207
开发的	-16208
是关于	-16209
比利时	-16210
管理局	-16211
舒适度	-16212
鸡尾酒	-16213
font	-16214
ovsk	-16215
qiao	-16216
▁inn	-16217
store	-16218
▁SUSE	-16219
imedia	-16220
urches	-16221
▁Hyatt	-16222
▁Money	-16223
▁Paulo	-16224
▁drugs	-16225
▁laugh	-16226
stanbul	-16227
▁Inters	-16228
▁golden	-16229
▁relief	-16230
▁robust	-16231
▁suffer	-16232
▁($10-30	-16233
▁Channel	-16234
▁arrived	-16235
▁careful	-16236
▁combine	-16237
▁explains	-16238
▁precious	-16239
▁romantic	-16240
▁omissions	-16241
▁ownership	-16242
▁definition	-16243
▁Kitchenware	-16244
zo	-16245
▁数	-16246
不停	-16247
实行	-16248
家居	-16249
山脉	-16250
州市	-16251
德拉	-16252
您与	-16253
把我	-16254
报表	-16255
拉多	-16256
支撑	-16257
演员	-16258
调试	-16259
这家	-16260
通往	-16261
集合	-16262
eta	-16263
pdf	-16264
sub	-16265
▁当时	-16266
▁本书	-16267
的页面	-16268
第二次	-16269
avel	-16270
cies	-16271
city	-16272
▁IDE	-16273
▁Isa	-16274
▁Zhu	-16275
官方网站	-16276
atile	-16277
▁Anti	-16278
▁Snow	-16279
各种各样的	-16280
rategy	-16281
▁Macau	-16282
▁owned	-16283
▁begins	-16284
▁copper	-16285
▁spaces	-16286
▁tongue	-16287
▁Mission	-16288
▁Tourist	-16289
▁analyze	-16290
▁uniform	-16291
available	-16292
▁Chairman	-16293
▁Creative	-16294
▁Football	-16295
▁humanity	-16296
▁Alexander	-16297
▁discussed	-16298
▁absolutely	-16299
.1	-16300
PH	-16301
si	-16302
▁梅	-16303
▁莱	-16304
单个	-16305
外壳	-16306
封装	-16307
尔特	-16308
忘了	-16309
教科	-16310
术语	-16311
林匹	-16312
海上	-16313
生气	-16314
睡觉	-16315
菜肴	-16316
认知	-16317
转身	-16318
ADE	-16319
Reg	-16320
cho	-16321
ppy	-16322
▁希腊	-16323
▁深圳	-16324
▁获取	-16325
▁餐桌	-16326
客房均	-16327
耶稣的	-16328
wich	-16329
▁Boy	-16330
▁Dol	-16331
▁Leg	-16332
▁Tar	-16333
oggle	-16334
▁Been	-16335
▁Cres	-16336
▁Gang	-16337
▁Ross	-16338
▁soil	-16339
附近的酒店	-16340
master	-16341
ousing	-16342
▁Islam	-16343
▁dwell	-16344
▁keeps	-16345
▁twice	-16346
▁yield	-16347
或以其他方式	-16348
Bedroom	-16349
raction	-16350
▁Retail	-16351
▁Transl	-16352
▁behold	-16353
▁corros	-16354
▁rising	-16355
▁Georgia	-16356
▁fulfill	-16357
▁relaxed	-16358
▁Pressure	-16359
▁Terminal	-16360
▁occurred	-16361
forgettable	-16362
▁simulation	-16363
OO	-16364
Sk	-16365
▁各	-16366
▁康	-16367
▁未	-16368
东南	-16369
佛教	-16370
信徒	-16371
在内	-16372
延伸	-16373
手工	-16374
打击	-16375
放入	-16376
是他	-16377
森堡	-16378
潜力	-16379
生涯	-16380
签订	-16381
花卉	-16382
-23	-16383
▁上次	-16384
▁清洁	-16385
你想要	-16386
大规模	-16387
客人的	-16388
的日子	-16389
2006	-16390
MIME	-16391
iche	-16392
igen	-16393
▁Coc	-16394
本协议或	-16395
haust	-16396
▁nine	-16397
▁zero	-16398
▁Meteo	-16399
▁Zhang	-16400
▁align	-16401
▁logos	-16402
▁newly	-16403
▁stack	-16404
ections	-16405
ifiable	-16406
▁Apache	-16407
pression	-16408
▁Release	-16409
▁Weather	-16410
▁organic	-16411
▁aquarium	-16412
▁covering	-16413
▁fighting	-16414
▁relaxing	-16415
▁optimized	-16416
▁Innovation	-16417
▁examination	-16418
▁unforgettable	-16419
▁pharmaceutical	-16420
7]	-16421
9]	-16422
To	-16423
任一	-16424
体积	-16425
修炼	-16426
公交	-16427
典雅	-16428
单人	-16429
哲学	-16430
字母	-16431
强的	-16432
拓展	-16433
斯拉	-16434
沿着	-16435
点的	-16436
编译	-16437
膨胀	-16438
路由	-16439
预言	-16440
▁89	-16441
▁也许	-16442
▁第四	-16443
▁那些	-16444
常见的	-16445
生活的	-16446
的最高	-16447
考虑到	-16448
足够的	-16449
都配有	-16450
hire	-16451
ikes	-16452
wang	-16453
▁DES	-16454
▁DNS	-16455
▁Hit	-16456
▁Hur	-16457
▁Kaz	-16458
▁Pap	-16459
▁Xia	-16460
▁我们与	-16461
佛罗里达	-16462
停止使用	-16463
在我们的	-16464
成为一个	-16465
ETHER	-16466
ograp	-16467
oving	-16468
▁Peru	-16469
▁belt	-16470
▁ends	-16471
▁rely	-16472
▁ware	-16473
▁厨房用具	-16474
assion	-16475
iPhone	-16476
▁Hours	-16477
▁chest	-16478
▁rural	-16479
Details	-16480
▁Jackie	-16481
▁MACHIN	-16482
▁reward	-16483
该等网站或资源	-16484
▁COMPANY	-16485
▁Journal	-16486
▁planned	-16487
▁screens	-16488
▁sectors	-16489
▁ELECTRON	-16490
▁evaluation	-16491
▁networking	-16492
▁transition	-16493
▁overlooking	-16494
▁agricultural	-16495
BT	-16496
▁毛	-16497
万豪	-16498
伯特	-16499
你了	-16500
创业	-16501
发射	-16502
命名	-16503
极其	-16504
用水	-16505
短信	-16506
蛋糕	-16507
马逊	-16508
,19	-16509
001	-16510
IAN	-16511
ICA	-16512
dis	-16513
eek	-16514
uce	-16515
▁名称	-16516
▁社区	-16517
▁网页	-16518
到一个	-16519
制造业	-16520
存在的	-16521
对我们	-16522
排名第	-16523
无论是	-16524
让您在	-16525
设计或	-16526
airo	-16527
apse	-16528
▁13:	-16529
▁8.2	-16530
▁Gab	-16531
我们需要	-16532
花和花束	-16533
bassy	-16534
▁DATA	-16535
▁Dark	-16536
▁WEBS	-16537
▁ibis	-16538
▁lady	-16539
季节性供应	-16540
erness	-16541
▁Clear	-16542
▁Domin	-16543
▁Monte	-16544
▁Prize	-16545
▁Quant	-16546
▁meets	-16547
atering	-16548
▁Yellow	-16549
▁incred	-16550
▁tablet	-16551
iversary	-16552
▁carrier	-16553
▁absolute	-16554
▁supplied	-16555
▁Sometimes	-16556
▁chemicals	-16557
▁Federation	-16558
▁appreciate	-16559
▁notification	-16560
zi	-16561
▁回	-16562
互相	-16563
使徒	-16564
倾向	-16565
和更	-16566
城镇	-16567
填充	-16568
外面	-16569
天空	-16570
奢华	-16571
姐姐	-16572
性或	-16573
我有	-16574
所作	-16575
才是	-16576
瀑布	-16577
蓝牙	-16578
裁定	-16579
这类	-16580
退还	-16581
-01	-16582
DIT	-16583
Now	-16584
adi	-16585
arr	-16586
exp	-16587
rik	-16588
tes	-16589
▁1-	-16590
▁61	-16591
▁时间	-16592
伯拉罕	-16593
因任何	-16594
在使用	-16595
成为了	-16596
设备和	-16597
隐藏的	-16598
Love	-16599
▁140	-16600
▁Fal	-16601
▁Oak	-16602
▁Sin	-16603
▁上一篇	-16604
duate	-16605
ested	-16606
ubric	-16607
▁Blvd	-16608
▁Carr	-16609
▁Cell	-16610
▁roof	-16611
▁我喜欢的	-16612
▁的某个人	-16613
▁这意味着	-16614
和国际版权	-16615
显示取决于	-16616
服务提供商	-16617
imited	-16618
ocracy	-16619
ridges	-16620
▁Sport	-16621
▁prove	-16622
▁shook	-16623
▁spare	-16624
▁ultra	-16625
Central	-16626
▁Jersey	-16627
curities	-16628
▁covenant	-16629
▁的某个人花和花束	-16630
▁请注意季节性供应	-16631
▁indicates	-16632
显示取决于目的地国家	-16633
▁Accessories	-16634
▁百	-16635
卡车	-16636
奖项	-16637
官网	-16638
帮你	-16639
忽然	-16640
支援	-16641
效力	-16642
深深	-16643
起身	-16644
路易	-16645
重建	-16646
问道	-16647
-75	-16648
DER	-16649
oam	-16650
uta	-16651
▁IR	-16652
▁保持	-16653
▁条款	-16654
之任何	-16655
了下来	-16656
出色的	-16657
和在线	-16658
当地的	-16659
权利或	-16660
零售商	-16661
NESS	-16662
bing	-16663
itar	-16664
mann	-16665
qing	-16666
yuan	-16667
▁26,	-16668
▁Lay	-16669
▁Toy	-16670
▁Ult	-16671
▁Wal	-16672
▁最好的	-16673
即表示您	-16674
您可以在	-16675
/2016	-16676
Micro	-16677
Where	-16678
▁Mold	-16679
▁alle	-16680
▁Hyper	-16681
▁Staff	-16682
▁Vehic	-16683
▁parks	-16684
essions	-16685
▁Ransom	-16686
▁exists	-16687
▁laptop	-16688
▁stairs	-16689
▁Edition	-16690
▁Success	-16691
▁dollars	-16692
▁samples	-16693
▁wanting	-16694
▁describe	-16695
▁keyboard	-16696
▁southern	-16697
▁Integrated	-16698
(3	-16699
CB	-16700
▁搜	-16701
到来	-16702
可从	-16703
含量	-16704
搅拌	-16705
方位	-16706
理工	-16707
穿着	-16708
纳米	-16709
钢琴	-16710
阴茎	-16711
0.0	-16712
acc	-16713
hat	-16714
iev	-16715
▁(6	-16716
▁报告	-16717
内容或	-16718
感受到	-16719
提供此	-16720
的学生	-16721
from	-16722
guan	-16723
shot	-16724
▁AVI	-16725
世界上最	-16726
公共区域	-16727
哥伦比亚	-16728
数据中心	-16729
ERIAL	-16730
elect	-16731
ruits	-16732
words	-16733
▁Carm	-16734
▁Rank	-16735
▁SPEC	-16736
▁WIPO	-16737
▁frag	-16738
▁rect	-16739
▁本网页有	-16740
nesday	-16741
▁Magic	-16742
▁Simon	-16743
▁deleg	-16744
▁robot	-16745
统计信息以及	-16746
▁Accept	-16747
▁Linked	-16748
▁beside	-16749
▁hearts	-16750
▁powers	-16751
▁refers	-16752
▁wicked	-16753
服务或其他材料	-16754
▁chapter	-16755
▁signals	-16756
▁trusted	-16757
受中国和国际版权	-16758
▁attended	-16759
▁magnetic	-16760
▁specialty	-16761
▁Navigation	-16762
▁Parliament	-16763
▁本网页有统计信息以及	-16764
▁incorporate	-16765
▁shareholders	-16766
▁本网页有统计信息以及仔细的分析	-16767
5]	-16768
AZ	-16769
▁位	-16770
▁整	-16771
中最	-16772
会话	-16773
厂商	-16774
吃饭	-16775
圆形	-16776
宝宝	-16777
工商	-16778
并与	-16779
本质	-16780
细则	-16781
蔬菜	-16782
陈述	-16783
lad	-16784
uri	-16785
▁OB	-16786
▁工具	-16787
▁我在	-16788
▁结果	-16789
乌克兰	-16790
实现了	-16791
带来了	-16792
竞争力	-16793
间卧室	-16794
kins	-16795
▁8.4	-16796
▁GBP	-16797
▁HOT	-16798
▁Jim	-16799
▁Kit	-16800
▁Mrs	-16801
▁SMS	-16802
告诉我们	-16803
商标注册	-16804
本服务之	-16805
电话号码	-16806
Linux	-16807
emade	-16808
▁Jean	-16809
▁Jing	-16810
种类的所有	-16811
ystems	-16812
▁Amber	-16813
▁Apply	-16814
▁depos	-16815
贸易有限公司	-16816
anently	-16817
▁Afghan	-16818
▁Gerber	-16819
▁beings	-16820
▁leaves	-16821
▁Options	-16822
▁corrupt	-16823
▁royalty	-16824
▁Protocol	-16825
▁Salvador	-16826
▁Tropical	-16827
明确声明不作出任何	-16828
▁Beautiful	-16829
▁evolution	-16830
▁dimensions	-16831
▁accommodate	-16832
受中国和国际版权法的保护	-16833
▁optimization	-16834
▁subscription	-16835
▁结	-16836
▁网	-16837
▁选	-16838
之家	-16839
伦多	-16840
全新	-16841
回事	-16842
天下	-16843
学员	-16844
富汗	-16845
庭院	-16846
强化	-16847
护照	-16848
敌人	-16849
更大	-16850
电信	-16851
看法	-16852
突出	-16853
赞助	-16854
[...]
